<BOS>
<PAD>
<EOS>
<UNK>
▁
о
е
а
и
н
т
с
л
р
в
к
м
д
у
п
,
я
.
ы
ь
г
з
б
ч
й
ж
х
-
ш
ю
ц
щ
В
э
Н
"
С
П
А
О
И
ё
К
ф
М
1
Т
!
Д
e
0
:
Р
t
a
o
2
r
i
Б
Е
n
)
Л
Я
Г
(
9
s
u
З
У
l
Ч
Э
3
5
;
4
/
8
h
y
Х
d
6
7
—
A
I
m
Ф
c
p
«
»
w
*
ъ
R
S
Ш
f
 
g
Ж
b
T
Ю
O
N
E
D
U
v
Ц
X
L
P
M
k
B
C
?
=
V
Y
Й
Ь
>
<
Ы
H
z
“
”
G
&
W
q
–
+
K
F
'
]
[
%
x
…
Щ
j
|
J
_
Ё
§
№
і
#
▁,
▁.
▁п
▁с
▁н
▁в
то
▁и
но
▁о
ра
ст
ко
ро
ен
▁-
го
▁по
ал
▁д
ка
ре
▁м
▁на
ли
▁б
▁не
ла
ет
ри
ни
▁т
ло
ть
во
▁з
▁ч
на
ва
ны
▁у
ся
ер
ль
ки
да
ем
▁за
ле
▁к
сь
ру
те
▁ко
ти
▁то
ми
▁е
ди
▁"
▁В
ви
ени
та
▁ра
▁что
не
же
▁ка
▁Н
▁про
▁э
де
▁бы
ну
▁П
до
хо
▁С
▁от
▁со
▁во
мо
ля
ве
▁а
▁го
▁до
▁при
▁г
ма
се
чи
▁мо
▁К
бо
▁я
жи
▁А
▁!
▁О
▁М
по
ши
че
▁та
ку
ры
▁вы
▁И
ско
ду
▁это
▁об
али
ше
си
сти
▁Т
сто
ала
▁Д
ста
ере
лу
▁:
▁из
▁но
ной
ча
за
▁1
лю
сть
▁ни
ей
ци
ме
ня
га
му
▁как
со
▁раз
ски
▁все
ного
▁те
аль
▁ст
щи
▁бо
вы
ще
ги
ря
▁Б
▁)
▁сво
ный
▁он
▁По
▁Р
пи
▁под
па
▁пре
тель
са
▁(
▁ре
ные
бе
▁де
гда
▁его
вер
ву
би
▁хо
▁се
ения
▁ли
ных
▁же
ту
▁Я
ты
▁Г
ень
лся
ало
▁ве
▁да
ться
енно
▁са
▁ф
ша
▁кото
▁2
лько
▁ме
жа
▁бе
ение
шь
бы
▁Л
▁ма
ется
каз
лы
▁бу
ют
▁так
ды
▁пере
вет
це
кой
▁З
▁На
ца
ке
▁жи
ство
еня
пе
▁си
жно
ему
▁сто
▁лю
▁ру
зи
зо
сле
ным
ная
мы
▁ми
▁было
▁Э
рем
▁па
▁ви
вал
▁Е
▁вс
▁рас
▁Ч
чно
▁ты
▁дру
ак
▁Но
▁ж
▁У
ств
гу
▁че
▁х
бя
про
▁меня
▁ста
▁;
ба
ров
нов
▁мы
▁она
дь
▁/
лась
▁ро
вать
▁19
сли
▁зна
су
пу
▁су
он
ное
▁Не
дет
лет
ния
ков
▁для
ние
▁ва
ходи
▁был
▁од
ком
вши
▁Во
▁воз
▁ис
бу
▁ку
▁ду
▁мне
об
▁Да
лен
лове
ха
▁ш
ром
▁только
▁уже
ном
том
тся
▁Ко
ской
зы
рав
▁боль
▁ле
▁пред
ска
▁Х
ща
▁20
▁врем
▁которы
нь
дя
лись
тя
ную
мен
ран
▁гла
ского
▁их
▁ча
вно
ства
вой
▁му
▁вз
▁Он
зу
▁ту
▁они
мот
ор
▁пу
ции
ющи
зна
мер
кры
▁Ма
▁челове
тельно
сту
вали
жет
▁За
▁сло
▁кон
▁ин
лось
ский
гра
вая
вя
вори
нима
▁Ка
сте
▁им
▁или
▁«
▁»
▁Мо
▁когда
сси
вля
ан
▁Ф
▁после
сы
▁слу
ался
▁голо
▁чу
▁*
▁пер
ствен
▁ее
ена
дел
▁пи
▁свои
▁жиз
▁дол
▁пра
ник
▁Это
дин
нул
пер
тов
стви
▁само
▁рабо
стро
▁—
стоя
▁То
дно
▁еще
фи
спо
пы
▁Бо
▁года
чу
▁Ро
▁была
алось
▁чтобы
чески
▁обра
шо
сно
ными
ск
гля
дом
▁кра
▁без
▁сказ
алась
жд
гла
▁прои
▁оста
▁время
▁ком
хи
чень
▁даже
ван
▁Со
кра
▁ц
▁стра
▁себя
жен
рой
▁вер
▁нач
▁полу
▁нас
▁если
▁пос
▁эти
кто
▁ему
чь
▁пол
але
▁есть
▁были
▁пе
тив
▁всё
ней
▁ба
стре
▁пла
▁чем
ев
▁сле
ман
▁где
▁ну
▁A
▁ус
тно
▁3
▁Ни
мет
nt
лек
цы
ешь
ству
▁Что
ками
тра
нд
род
вает
кие
пра
▁Ну
ге
▁будет
▁очень
рь
▁Ра
каза
тому
▁ди
чего
шу
▁тем
ене
▁нет
▁тебя
▁поч
бра
▁лет
▁него
▁может
▁говори
дер
пол
er
пре
жу
▁кто
бой
▁Ты
▁просто
щё
▁её
дела
▁чи
▁При
кого
▁Та
ении
нии
▁вот
▁Ми
▁Ва
▁Про
▁фи
▁Как
▁Ж
лей
ез
▁Вы
сты
▁ла
его
▁глаза
вор
шка
▁Ш
▁там
▁Она
при
кая
рти
▁этого
тер
нее
ются
▁0
ять
▁ско
▁201
цо
руг
вто
вый
▁быть
мотре
▁этом
in
бли
час
ний
ника
▁Са
дей
ались
три
▁каж
▁спо
ких
▁Го
ним
▁того
шел
▁ло
an
вед
ейчас
лем
▁Ве
he
нет
▁ки
▁себе
▁сторо
▁подо
нно
▁Мы
прав
кую
стра
стью
▁Так
▁ок
▁лу
ления
десь
al
шей
▁дела
кое
ред
жал
вые
ём
ерез
▁помо
▁R
перь
кий
▁тебе
сла
▁До
жда
лее
▁гру
▁году
кон
вала
льно
ально
▁поня
нулся
▁жен
▁тре
проси
▁надо
ция
or
фе
стави
▁Все
▁ответ
▁це
▁дет
▁них
▁ещё
▁Ви
▁Па
▁день
нови
ья
▁больше
зя
▁можно
▁том
дар
▁сов
ил
▁ос
ская
ений
цу
▁хоро
ёт
▁тут
▁Хо
ением
▁этот
ских
▁тру
чит
▁сер
▁много
▁От
ким
щу
рии
▁Вот
ят
ственно
чен
казы
▁тоже
дов
▁ничего
шего
▁4
yu
▁расс
чка
ин
вшись
st
нова
▁друго
рен
тере
▁ти
вых
нула
▁жизни
рт
▁сказал
▁который
▁200
▁буду
▁поз
▁поло
ит
ню
ён
▁5
▁потом
лом
▁име
вания
▁Ю
▁t
▁объ
рая
ском
▁всех
▁ша
ете
▁сейчас
клю
at
шла
дол
▁Росси
▁здесь
▁один
ur
ению
соб
▁зем
▁ей
▁которые
▁исто
▁свя
сколько
▁?
став
чем
сем
▁над
▁нем
жду
шки
▁своей
▁человек
▁нам
▁мог
▁гра
ление
▁Те
рого
сов
▁ск
▁через
▁ней
стно
▁обо
▁други
вого
нал
▁свет
мни
 —
▁пло
▁кро
▁пока
▁более
▁Ли
сс
чки
цион
ден
▁два
шли
▁перед
▁гу
▁чув
▁ост
дня
вра
▁M
ью
▁откры
▁o
ках
нечно
▁дей
▁=
▁встре
бира
▁хоте
теля
лаго
▁I
ёл
▁ор
лов
йти
ар
можно
▁авто
тро
вался
▁сем
нут
щей
ваться
▁жизнь
вое
▁теперь
стя
▁r
▁свою
щего
▁всего
▁ним
▁B
▁произ
ясь
той
жение
▁моло
▁кре
▁вме
▁всегда
▁6
▁горо
▁уви
▁могу
вым
води
▁Если
дели
▁ря
ников
▁случа
дца
им
ar
▁муж
вается
мой
▁сы
▁поя
▁тот
зда
▁Они
▁женщи
▁18
▁вой
▁люби
ские
тери
тия
▁спроси
обра
ходя
стве
▁f
▁лишь
▁10
▁сам
▁чер
▁пы
▁бра
рей
▁луч
нуть
▁S
▁Ц
вод
кти
▁реши
▁ведь
▁ше
дой
▁кни
▁стал
▁взгля
она
ставля
▁улы
▁кри
ходит
on
вание
ники
из
▁Алек
▁Ан
разу
прави
▁p
▁послед
▁чего
▁этой
▁C
▁тогда
йте
▁тер
▁Нет
▁T
▁несколько
▁три
фор
чина
▁вос
▁кру
дем
▁слова
ленно
чет
вати
▁w
▁вопро
▁тво
▁доро
вич
жения
▁вас
▁бро
▁ю
▁отно
▁вто
▁дере
сом
▁P
ступ
▁продол
▁ар
▁m
▁Ку
ющий
▁глу
▁тех
▁нео
нец
▁получи
дум
кла
шая
воз
▁людей
цию
ут
▁ан
рия
▁коро
юсь
шло
▁спи
▁вла
▁одна
▁любо
ены
оло
▁всем
тан
телей
▁тра
ёр
▁дома
▁вд
▁соб
▁самы
▁стоя
▁мал
▁потому
▁Когда
▁такой
дать
▁обла
дал
▁деву
ское
▁нико
казать
▁Из
▁Де
▁ог
вший
ших
сло
▁понима
▁поли
▁га
чал
▁между
it
зе
▁суще
▁Ле
▁бли
пло
▁тя
▁дума
пусти
▁пря
тем
▁пар
тать
▁свой
кан
▁спе
▁действи
▁теле
ход
▁смо
▁благо
▁вам
ент
рю
▁8
▁h
▁эта
вари
нулась
▁спа
емо
▁человека
▁c
▁ры
▁Лю
▁также
▁Пет
▁Бе
le
реди
сни
▁уча
▁s
рое
▁побе
▁люди
▁Ру
▁прави
▁оп
мя
▁вся
лез
▁>
спе
▁<
▁поэ
будь
▁сме
▁совсем
мент
▁обе
▁сла
нт
▁высо
▁Сер
▁хотя
▁своего
▁199
▁сдела
вают
жил
щее
▁своих
▁дви
▁почти
вери
▁сол
▁знаю
лыш
▁Ме
▁интере
вом
▁кол
емы
▁совер
▁сту
▁улыб
▁Ла
▁би
▁ска
ro
00
тели
чку
▁Си
▁какой
мени
▁рус
лин
деть
ческой
▁вол
бро
▁9
▁X
▁уди
▁Од
▁мно
ющих
тал
шен
▁прав
▁После
▁нибудь
▁образо
тор
▁нау
▁сразу
▁почему
обще
▁мол
▁успе
▁коман
ур
лё
бор
нем
▁Мне
бря
▁лег
▁роди
▁маши
ек
ех
▁руки
▁вра
▁нужно
▁смер
▁7
щая
▁мой
▁чет
нес
▁одно
▁ника
▁фор
▁дву
▁мет
▁снова
▁дело
блю
▁орга
▁явля
вую
▁кла
пла
нок
▁хорошо
жать
▁эк
▁объя
ющие
чала
ху
es
▁Его
цев
▁собой
чной
▁уби
▁комна
скую
▁Ба
ступи
▁следу
▁оказ
стер
▁Ре
СС
▁Пу
▁вели
▁вместе
слу
▁двер
en
▁возможно
▁ак
писа
▁никогда
▁времени
▁место
▁кор
▁дер
ряд
▁приня
ot
кре
▁Ки
вай
▁смотре
▁Бу
▁против
▁даль
▁d
▁похо
▁взя
ум
▁гор
мина
нием
▁неко
▁сте
▁глав
▁кар
хов
него
пыт
▁друг
ством
судар
▁замет
▁оче
жды
ерт
▁язы
▁E
ческих
▁сего
▁созда
сса
▁ули
▁мои
▁находи
рави
СТ
воль
▁ху
жида
▁состоя
рую
шения
▁внима
▁пле
ший
▁конечно
тера
▁небо
▁ши
нув
▁куда
▁которая
▁обы
тали
▁вдруг
▁сти
ток
ваю
ети
▁которой
ia
зд
▁рядом
yunt
yuntyu
поло
▁сказать
▁нее
▁жела
кола
▁ри
▁долж
чер
▁ха
▁“
сили
▁непо
ческого
▁наз
▁именно
вил
▁разго
вета
▁учи
▁a
▁стро
▁Анд
нен
щен
воря
▁обще
▁р
чный
щий
чение
▁уж
▁посмотре
▁наш
▁Ду
▁сп
▁тол
вались
▁весь
▁согла
ности
▁сегодня
▁мед
нию
▁проис
▁изве
торы
от
стей
▁недо
▁буд
пера
▁”
▁b
чита
дить
▁назы
▁мир
▁лицо
говори
фа
тен
рова
▁види
них
▁уда
дох
▁долго
чения
ктор
▁сча
▁рай
лый
шку
фо
вь
▁быстро
дель
мотри
▁вообще
▁род
▁Бы
▁Се
▁позво
лли
▁вспо
РО
▁Одна
▁малень
▁Ин
▁Только
ссо
▁своим
▁ут
ружи
▁такое
us
ИЯ
рак
тый
▁запа
▁Ар
▁сдел
вших
▁подня
▁ква
▁лучше
▁России
▁D
▁фа
ница
▁эту
ским
сит
шно
▁15
шим
▁голову
▁город
▁прекра
▁уни
▁матери
▁испо
▁ды
US
чать
ливо
рон
▁вне
рован
▁осо
ent
▁стран
щем
▁бере
стой
вшие
тре
▁лично
▁Алекса
стал
цен
▁другой
коло
▁Му
▁которых
qu
нер
шие
жала
▁сказала
▁настоя
нах
тки
нала
▁N
тур
▁194
ческий
чил
▁ге
▁Су
ян
рок
шой
▁немного
▁пой
▁Y
РА
▁спросил
▁хозя
чных
▁наде
гов
▁Моск
▁пор
▁шко
▁государ
шёл
▁нес
ета
рий
▁кры
▁Ста
рил
▁чуть
▁Пер
чные
▁таки
tt
низ
is
▁Вла
▁ум
жде
▁Александ
▁сама
ску
▁будто
▁стре
вели
▁2012
шую
▁Ди
▁этих
ждения
▁одной
▁кажды
ье
▁никто
ях
куда
того
ic
щения
▁груп
кло
▁словно
▁12
▁фо
дра
▁руку
альчи
▁забы
▁делать
▁опре
▁неу
▁уго
▁заме
рта
стран
лик
▁деся
гре
дова
бер
▁сторону
▁повер
шение
ила
▁жа
шенно
▁Зна
▁n
and
сколь
▁вок
IA
лой
▁сви
раз
▁оби
▁свобо
пал
льзо
▁мной
▁17
▁кого
конец
гли
▁проб
еть
▁равно
▁игра
зад
альной
ческие
▁сли
шать
вести
щение
щих
▁–
▁навер
нами
нали
▁переда
el
▁+
сут
▁ги
вез
▁тор
шком
▁дан
▁год
вле
гии
кам
▁стороны
▁этим
▁дерев
тами
▁друга
хра
▁которого
▁сооб
▁гото
тий
▁Поч
▁всю
▁холо
▁стало
▁ца
чо
▁Раз
▁хоть
лага
зан
▁появи
▁вет
юда
▁Ryuntyu
▁необ
ствие
▁места
жить
пере
▁двух
▁назад
▁прямо
▁мало
что
дил
▁Лу
▁мя
str
▁радо
▁закон
▁ночь
▁способ
▁ад
нце
стов
▁каз
рабо
▁стали
кус
рик
▁Кто
▁дверь
▁давно
▁города
▁тро
рот
▁должен
▁отли
валась
вало
▁иг
хвати
▁осно
▁гре
дцать
▁ино
гие
▁заня
▁Ти
ttp
ить
▁ци
▁11
дит
гом
альные
льта
▁тому
▁H
тец
▁the
КА
сил
▁Гла
▁Ев
▁смы
▁наро
▁работа
▁сред
▁Может
▁Мар
▁стала
ственной
▁Под
▁момент
▁огром
ность
▁иде
нк
▁воло
▁закры
▁сами
НИ
▁XX
мом
мери
вольно
▁других
▁полити
держи
▁оде
▁16
▁мира
▁голос
тие
жо
▁Об
чного
▁свое
▁силь
дут
чин
▁дум
▁совет
▁руко
лые
доро
вить
дви
▁выра
пря
▁живо
▁предло
▁http
▁собира
альных
▁особ
дим
▁такие
▁две
тые
▁уз
щие
ствовал
▁моя
▁дале
▁опять
▁одного
ровать
ций
▁возду
▁краси
▁W
▁све
мов
▁свер
▁Никола
жали
▁разви
вшего
▁й
тин
▁оно
▁гро
рами
▁стар
▁сот
▁зву
▁окру
▁моей
форма
бур
правля
ницы
▁хочу
▁ощу
▁бес
▁офи
ваясь
▁помощ
чув
чная
▁необходи
станов
ствует
НА
▁сист
▁доста
сё
▁начал
▁удо
чество
quot
▁дня
▁Ха
▁ru
казал
&quot
сед
▁Че
ником
НО
▁сна
роде
▁спра
▁потер
▁L
чить
il
▁тыся
▁вид
▁каждый
льзя
▁сделать
▁ответил
ступа
шее
▁останови
ерк
▁зако
▁мыс
щую
лены
▁представи
▁серд
▁говорит
▁паль
▁кварти
▁точно
▁l
▁л
▁мысли
ol
лия
альный
▁Кон
▁вопрос
втра
вел
▁скоро
▁проблем
▁Пре
▁14
▁окон
▁of
ЛЬ
▁знал
▁пора
дума
▁месте
▁говоря
▁хотел
▁Пере
док
▁уг
рев
▁жить
▁дальше
▁Би
рить
▁органи
▁понял
▁будут
ятно
зульта
▁вокруг
графи
▁убе
нить
дали
▁пода
▁Кра
вин
цов
▁'
стан
▁вну
рин
▁защи
ющим
▁Вер
ig
▁дом
тить
▁Теперь
▁рез
▁действительно
▁Au
▁обя
лена
▁Пи
рах
▁либо
▁является
чат
дро
ального
чей
▁проти
кова
чает
▁подоб
▁специ
▁Га
▁уч
▁начина
▁самом
ями
▁части
▁меся
▁спокой
стру
чера
хом
▁значит
uri
▁подум
▁бан
▁and
▁тяже
et
▁поэтому
ion
▁полно
▁увер
▁зада
ссе
▁Фе
▁Почему
лови
▁стать
вар
▁среди
▁музы
валось
рее
ган
▁мальчи
тил
▁неза
so
▁должно
▁собра
▁Им
▁друз
пис
▁Однако
тая
▁хра
▁постоя
▁тобой
▁домой
▁какие
▁нуж
▁произо
рал
▁Ге
▁опа
▁неё
stral
нули
▁Для
хе
▁ 
▁стол
енное
▁ради
оне
▁Ива
▁Austral
▁стоит
▁посе
зь
сен
ЕК
▁совершенно
▁затем
▁возра
▁ию
▁Там
▁первый
ньше
▁конце
▁возвра
om
кт
▁созна
ЛИ
кро
▁дево
▁нему
▁могут
хва
▁самого
▁Потом
▁меч
▁взгляд
▁случае
▁ще
чая
▁ними
тых
▁знако
ристи
▁198
гами
туры
▁результа
▁Ведь
▁истори
▁призна
▁The
жит
ющего
▁пом
их
▁приходи
RA
ствия
att
лок
ститу
▁ев
▁V
сня
▁]
▁неболь
жешь
▁[
▁счита
ема
▁отве
▁литера
▁куль
▁право
жем
▁напо
дешь
лег
▁писа
▁ид
новь
ель
▁Ри
▁in
ed
▁Тогда
▁часто
нам
▁Ско
нки
▁Мак
нил
▁четы
▁тихо
оте
▁193
▁ал
чества
▁которую
дино
чали
▁13
хот
▁часть
▁образом
ВА
цей
▁пя
▁видел
▁золо
▁деле
вора
▁представля
ющей
нения
▁слыш
▁гля
▁внут
▁упо
▁минут
▁девушка
am
▁основ
▁слишком
▁разли
▁выс
▁комп
▁зло
▁деньги
▁сне
▁прос
▁случай
вили
раль
▁дел
▁непри
▁головой
еру
держа
▁судь
▁Влади
▁зая
ww
▁един
▁проце
рм
▁пять
▁наблю
кал
тельный
▁www
▁Вели
кнул
▁поме
▁ото
▁станови
▁коло
▁начала
эт
лых
▁тело
▁Yuri
▁мор
▁зави
▁зе
туа
▁зо
рио
нный
кими
чным
▁узна
нуться
▁таких
▁поро
грам
точно
▁ужа
шин
▁Госпо
▁профе
▁Или
▁туда
▁мест
▁некоторы
▁работы
▁дра
мотря
▁Хоро
▁наши
▁нельзя
hew
▁кажется
▁кам
жей
▁поко
▁Matt
▁Ло
▁обна
стом
▁существо
рит
▁могла
▁Matthew
▁таким
матри
▁насе
▁такого
▁сколько
тью
▁рассказы
▁которое
чке
oo
след
▁карти
▁другие
▁196
лете
▁обяза
▁извест
▁фак
▁спу
▁вновь
▁мину
цем
▁компа
▁случи
▁около
все
▁привы
id
▁говорил
сить
полня
лит
рито
тельства
▁пыта
▁практи
▁виде
гал
▁сердце
▁протя
телем
▁зво
▁воен
▁pro
раб
▁ноги
сной
▁неиз
▁восто
номи
ственный
▁тон
▁прин
ont
зации
рез
шед
▁информа
▁говорить
лан
▁нашей
нулись
▁вспомни
шем
▁Воз
▁Спа
выми
▁такая
▁этому
▁скры
▁наконец
скому
деля
чек
▁энер
▁решил
чешь
блиоте
▁бога
▁Всё
гляды
хать
▁противо
▁войны
дят
пад
▁той
▁должны
▁особенно
▁приз
мир
цами
▁знает
АТ
▁Зем
▁доб
еры
▁глаз
шке
▁детей
кать
ЕР
ССР
▁Australia
пример
ственного
▁области
▁Поэ
▁пси
▁mso
▁забо
▁вклю
▁народ
▁чувство
▁парти
гру
или
▁цен
▁мене
сков
чие
▁192
▁арми
лья
чик
рый
▁беспо
бви
▁Миха
▁близ
▁197
тон
зии
▁отправи
▁уров
мента
вшей
ремен
▁капи
ЕН
▁показ
▁уме
▁<o
ША
▁удиви
▁котором
сибо
▁работу
логи
рина
▁смерти
▁ого
▁второй
▁глазами
▁дея
▁боя
ответ
честве
as
▁началь
▁собы
▁серь
▁пыт
▁каждо
ременно
▁AN
нев
ждение
▁хотелось
▁направ
▁яр
▁Хотя
▁худо
▁плохо
▁отец
тора
шлось
▁раньше
▁кос
хода
za
▁фото
▁превра
лад
жении
▁женщина
▁филь
▁Конечно
▁увидел
▁тай
щим
▁Боль
бре
▁попыт
руд
стли
стати
ётся
▁исче
вобо
▁знаешь
▁своими
ческая
▁слово
▁мире
▁край
▁кроме
ad
▁завтра
▁клу
чается
ваются
▁нару
▁Где
лета
▁195
▁дво
ницу
▁ны
бри
ровал
▁Россия
мый
тельной
▁жур
▁хи
▁мар
▁занима
▁Cent
рё
▁Сейчас
▁Гер
▁G
▁Андрей
тья
▁самое
▁AND
альное
▁цент
▁пути
тился
▁шта
тала
▁сюда
▁рукой
уй
▁соци
еди
▁191
▁террито
▁кур
▁крас
жной
▁пись
▁физи
лая
▁неме
▁сильно
▁семь
▁харак
гей
лки
▁приго
▁неожида
тября
нувшись
тей
▁правда
▁нена
нение
▁пример
сок
▁Даже
▁всей
▁имеет
тым
нику
ing
▁СССР
волю
▁Бог
▁неве
▁большой
полне
нной
▁Поэтому
мыш
▁другу
льзу
▁Через
лении
▁наи
кси
лев
▁ску
сторо
▁сделал
▁повто
дания
▁годы
▁устро
мах
▁разо
▁дости
▁аб
лина
дина
▁широ
▁зачем
▁ситуа
▁лица
▁пара
бно
цией
полни
▁F
▁мама
▁сере
▁голове
езд
▁необходимо
▁пару
▁исти
чай
ческое
ведения
ook
▁одну
дает
▁посте
слав
▁укра
▁прошло
▁использо
uss
▁согласи
▁легко
▁какая
▁%
жки
дии
▁соответ
▁понять
UR
▁весе
▁любви
▁искус
▁небе
рос
▁30
▁самой
ou
▁мень
▁впере
▁могли
зиден
нка
▁имя
алы
▁бук
▁руках
▁пожал
зор
▁Ст
нице
ехал
▁уд
▁proza
ссий
▁шо
▁сим
рет
▁Здесь
▁удив
▁font
▁Чу
▁служ
▁бле
ch
▁глубо
▁цвет
▁попа
re
дили
мира
▁любовь
▁моего
▁най
▁коли
▁Надо
фон
▁запи
▁иногда
▁НА
▁написа
▁госпо
▁Ча
▁мг
▁безо
▁хва
▁длин
▁съ
публи
няя
▁спросила
▁истории
гать
▁души
нные
вен
▁мать
▁пово
▁сум
▁казалось
▁хозяй
вут
▁США
ag
дала
▁гене
▁путь
знако
мол
▁перио
шек
▁душе
▁невоз
тар
▁почув
ury
▁кому
▁пои
▁впер
▁стара
таль
тельные
▁дене
▁подру
▁четыре
▁кори
▁твор
там
▁реб
▁поп
гло
▁заклю
▁найти
так
▁смотри
▁умер
▁нрави
▁25
▁медленно
доров
ктора
▁менее
▁Хорошо
▁посмотрел
▁Александр
▁причи
▁участ
▁каби
▁мини
▁проя
ТО
ске
▁Гу
▁утра
▁интерес
▁шу
▁двери
▁расска
тах
▁Сергей
▁площа
im
мерикан
▁Ал
▁гражда
▁Russ
▁сил
кономи
вли
два
▁самый
▁зу
▁внутрен
пли
евич
▁прид
гих
▁круп
▁стоял
▁горя
▁вышел
▁руками
▁времен
▁доба
▁Алексе
ербур
▁выгля
▁секу
▁захо
ному
▁разу
▁силы
▁думаю
▁зак
ляр
▁довольно
▁воды
наче
▁оши
▁сом
▁Ша
лым
▁Юри
ct
▁вечер
▁дней
▁измени
▁чита
▁миро
пуска
вей
ЛО
ген
вшая
ay
▁мгнов
лосо
▁потеря
▁элек
▁пусть
▁Пе
▁кров
шься
дко
ющее
▁гром
▁пам
▁холод
▁добро
▁ИЗ
ходить
▁опера
▁разве
сами
▁пото
▁услови
▁наверное
▁отра
рд
жай
меня
жим
стья
▁простран
▁живот
мая
▁U
▁исчез
▁должна
жила
un
▁гря
▁потре
тельство
зать
▁относи
лка
▁изу
▁Century
▁будем
▁ав
▁гости
▁2010
▁успо
дая
чиво
▁фу
ИИ
▁пов
▁вполне
▁ПО
▁мужчина
▁нашего
нин
▁бума
шему
пить
▁дети
▁городе
вид
возь
нимал
▁испы
▁тран
▁Пока
дите
▁сель
▁re
▁g
▁власти
един
▁Тем
▁нами
▁страш
▁участи
▁мужчи
▁располо
▁оконча
▁DV
▁поряд
▁взял
▁кли
чное
▁пригла
следо
ремя
▁бабу
▁DVD
▁постро
▁Тут
▁счастли
▁Сто
мана
лением
жели
скольку
сят
▁поги
дки
▁геро
▁подумал
▁думал
ческим
ственных
▁Кар
▁друзья
дия
мини
▁прибли
грани
скоре
дор
▁Пред
тельных
дан
▁молча
ходят
тельного
▁откуда
ствии
▁видимо
стала
▁какое
▁ладо
ленные
мея
▁мага
▁обу
шкой
чную
ющая
ствовать
URO
▁вроде
▁однако
жные
альная
седа
▁далеко
▁стру
▁сосед
ian
▁милли
▁древ
рения
ленной
▁достаточно
▁креп
▁постави
рам
▁спраши
▁сен
▁сила
▁запо
▁газ
▁РО
▁пришлось
щему
ям
▁идти
▁бое
▁стан
тка
над
▁тек
▁Евро
▁Свет
▁солда
▁пти
шил
▁земле
▁распо
▁попро
▁ново
▁своему
чется
прия
▁слы
мые
жный
версит
▁воск
▁Ту
ходил
▁передано
▁утвер
▁экономи
▁планет
▁кня
жных
▁секре
нюю
▁уста
пан
▁21
еты
мся
жден
зов
▁Иван
▁Бога
▁глазах
▁оружи
▁знать
зма
жь
▁внимание
▁сня
лку
▁кив
прочем
▁страны
▁хочешь
▁помни
▁степ
▁своё
▁отца
▁комнату
▁норм
▁выше
гой
▁Фран
▁одним
▁безу
вила
▁очеред
▁Кро
доль
▁&quot
▁команди
▁наших
тура
жением
▁доку
ина
▁22
▁Мэт
тай
жает
дам
▁тела
▁ожи
▁Иго
тельности
сл
▁осу
▁прекрас
▁мысль
▁темно
▁землю
▁пове
чены
ведение
▁Дж
▁часов
▁исклю
▁пого
мена
▁которым
▁) —
дами
▁своем
чкой
▁выз
▁например
▁Свя
▁отнош
▁одино
▁Меня
▁проводи
▁духов
▁мою
▁никак
▁27
▁иск
альным
▁Укра
▁предпо
▁Просто
▁кем
▁зас
стри
чами
мин
▁08
гах
▁остро
▁жена
▁происходит
▁женщины
▁отношения
▁назна
ВО
йся
▁получил
▁Сан
зм
▁Петербур
солю
вайте
▁века
гая
▁представ
ЛА
лять
дила
▁поки
▁дире
▁соста
▁ребя
▁Чер
▁поле
емся
▁вздох
тельным
рат
▁возник
▁Еще
▁чёр
▁связи
▁Прав
▁современ
ат
ey
▁видно
чис
▁неожиданно
ленных
▁доме
▁празд
▁сопро
▁прода
▁2005
▁большо
траль
▁преж
щал
▁сохра
▁кораб
▁заметил
шал
▁национ
▁мужи
кому
дев
▁Рус
▁слов
▁рели
▁показы
▁v
▁конца
жку
▁полностью
▁Сол
▁коми
▁многие
▁попроси
зем
▁чемпи
ственное
▁оказался
ешься
▁соба
▁столько
ехали
▁значи
▁присут
▁чтоб
▁смотрел
▁XXI
риан
тии
▁сын
▁напря
били
▁Есть
▁програм
гер
кс
имо
▁одном
▁Рю
▁едва
▁постоянно
▁корот
▁моз
▁кух
▁приро
▁магази
интере
▁скорее
▁бал
▁земли
▁ян
▁состав
▁Мэттью
ологи
бом
рию
▁спокойно
▁обычно
▁другом
▁сни
деми
вшийся
se
ору
▁каким
рко
▁пят
лова
мым
▁e
носи
▁хочет
▁Гри
▁Сем
▁внутри
бил
гает
пуск
кин
▁зам
▁ожида
▁имени
▁товари
▁Аль
▁прежде
▁красо
▁принци
▁24
▁удалось
тую
▁дека
▁воспо
▁Ничего
▁американ
▁дро
▁преду
▁институ
сон
КО
▁освобо
▁трудно
жая
пил
▁встрети
тельное
▁вниз
мых
▁голу
печат
мати
вление
▁рассказ
▁Бори
шить
тел
▁вза
нё
▁Вам
ческую
▁клю
▁поку
▁меньше
▁составля
▁людя
▁разре
▁уничто
▁бри
▁моих
▁тан
▁полови
▁сотруд
▁улице
▁сообщи
тое
▁закончи
мое
▁понимаю
▁ран
▁Библиоте
▁Лени
▁вече
▁Потому
▁Вал
▁говорят
▁столи
▁убий
▁мимо
▁Слу
▁жерт
▁внеш
▁дал
USS
▁дев
▁чём
▁23
ew
менты
скими
пно
▁задум
▁воро
ЕМ
▁свобод
▁еди
▁заго
ЕТ
тный
▁денег
▁поля
▁направи
▁изобра
рец
▁люблю
щает
▁брат
кар
▁Сла
▁Фи
▁случилось
▁Спасибо
▁АВ
▁невозможно
стье
▁Дру
iv
щаться
▁мона
тной
никами
▁кабинет
▁находится
▁парень
ленный
▁хотела
▁права
▁проз
▁заво
ЕЙ
▁авгу
▁Их
▁силу
ступил
▁строи
▁руб
▁Зачем
▁услыш
▁россий
▁Ему
▁уче
▁меди
▁мяг
нской
рыв
▁сму
▁треть
▁to
▁филосо
ation
▁коле
▁вчера
▁фигу
▁подъ
ru
▁Ав
▁иначе
вок
рует
ристиан
▁for
▁час
▁вещи
RAL
▁выбра
мую
дание
▁объясни
▁сначала
гали
▁интер
роп
▁произошло
▁важно
▁подго
▁буты
чий
▁часа
пала
ёз
ева
нтю
ЕД
▁Коро
▁испу
▁самым
нан
▁принима
жили
нется
шает
▁числе
алу
▁Этот
▁настро
ственные
▁ува
бора
йд
НТ
редь
▁твой
▁вместо
▁пожалуй
▁неизве
▁комму
▁резко
ворю
ственным
UST
▁кино
▁ибо
▁броси
тесь
▁AUST
RALIA
▁AUSTRALIA
▁Рюнтю
▁завер
▁Хри
ену
▁хле
нему
кадеми
▁подро
дцати
рила
езда
▁есте
▁видеть
▁Жи
нике
▁вста
▁книг
▁прово
▁аль
нья
▁преступ
▁известно
▁проду
II
мон
▁срав
▁цвета
▁качестве
▁обратно
OG
▁требо
▁возле
анта
▁чувству
твер
▁разме
мей
▁мере
▁тысяч
▁отсут
▁O
▁знала
РИ
▁последний
ати
рым
▁немец
▁Сте
▁Челове
лений
бере
тельность
ъя
▁Эти
мок
▁серьез
▁горе
▁сон
надле
▁следует
▁никого
▁взглядом
▁Чи
нович
▁зад
▁Навер
ерков
▁работать
▁счит
нку
▁насто
министра
рес
▁сквозь
▁удоволь
клады
▁нали
▁абсолю
ссии
▁бывает
▁бело
нач
▁история
▁ответила
▁всеми
▁сбор
▁Гор
▁цель
▁АВСТ
▁35
▁лес
вича
▁борь
▁двор
▁главное
▁образ
тает
▁янва
▁уро
нуло
ходили
бку
ванием
вини
▁нер
▁новый
▁идет
▁уст
▁явно
▁RUSS
ческом
сал
▁принадле
зер
▁RUSSIA
тащи
кров
▁разговор
пали
▁Значит
▁университ
▁поскольку
▁волосы
▁чувства
▁Россий
вления
мого
▁победим
▁прибы
▁желез
▁сидел
▁фран
▁столь
▁Серге
хран
ul
▁сц
▁общем
▁работе
▁Николай
▁будешь
бами
▁подоз
▁Оль
спи
▁выя
▁президен
▁книги
НЫ
▁всему
▁проек
▁улыбнулся
▁Правда
силь
▁комнате
▁объек
тыми
оз
▁st
▁разру
▁Ор
ниц
▁вовсе
▁поняла
▁хочется
▁РОСС
▁пози
▁управ
▁первой
▁помочь
▁Ладно
▁ненави
гнул
алов
ГО
рых
шет
нди
▁дя
▁болез
стые
▁возможность
▁первых
чила
▁реально
▁мая
пов
новременно
▁Вол
▁фе
енности
▁сих
▁неда
▁десять
нит
▁Затем
▁покры
▁Сле
▁демо
▁позволя
▁контро
▁пон
▁ап
плы
лла
пля
чё
▁тю
▁пяти
шина
следова
ub
лии
▁уто
рые
нять
▁молоды
▁вызы
дный
ac
они
▁Один
ИБ
енность
нных
лую
▁мое
▁производ
▁000
▁опо
митри
▁армии
▁весьма
сю
▁Пра
▁пережи
▁ввер
дий
▁апре
▁поце
▁26
▁смог
▁другим
▁конф
жин
рому
▁жив
мор
▁Уже
▁публи
▁поза
бить
ir
▁очередь
▁впервые
▁мел
▁опусти
роятно
доб
▁Владимир
▁появля
даря
▁бой
▁тео
▁погиб
▁прош
▁голова
▁предо
▁Пусть
▁подума
▁Й
зил
▁дли
▁дож
▁некото
писал
▁застави
▁Май
▁Тот
▁отды
страи
▁Чтобы
жество
▁Совет
▁Роди
лён
▁K
сер
▁собственно
бель
▁попу
▁Вто
▁новые
тельная
▁оказы
▁сына
▁Ах
▁Ab
телями
▁зи
эн
▁отда
▁порт
▁море
▁Кри
▁пала
▁какую
▁ночи
вшиеся
▁архи
лон
▁другого
кет
вшихся
кли
▁28
▁многих
рович
лению
▁смотреть
▁ныне
▁хвати
нят
ld
▁вернулся
▁Book
лети
▁нового
сности
▁душа
спубли
▁первого
▁осталось
▁помню
жным
кля
писы
▁определ
гам
▁здоров
▁вижу
▁ноя
ктивно
▁семей
част
▁психо
▁глядя
▁анти
щать
▁Неу
▁осторо
▁зерк
вол
биль
▁глуби
▁тради
▁офици
▁замеча
▁запре
▁вами
гка
▁каждого
▁Деву
хло
▁лице
▁Библиотеки
▁становится
▁Бер
▁солнце
▁Можно
▁распро
▁мер
▁начале
стности
▁Сего
▁думать
щается
▁пот
▁установ
▁Васили
▁практически
вшую
▁работ
▁прости
кру
▁подтвер
▁поддер
▁низ
жало
▁слегка
▁успел
▁телефон
▁кило
▁мощ
стр
inal
ющую
навли
ut
▁усили
цом
▁спать
▁язык
▁тепло
▁любов
▁худож
▁Дмитри
пле
▁беско
▁свидет
▁рука
▁Ио
▁Сегодня
ie
кнула
▁говорю
нного
▁пья
▁Очень
▁воспи
ваемы
▁Сам
▁револю
читы
▁машины
▁земля
ОТ
▁Вас
гия
▁настолько
▁ночью
мар
▁головы
▁фев
▁самых
▁измен
▁людям
▁увидеть
▁некоторые
йдет
▁группы
▁молодой
град
бран
сах
фу
▁улыба
▁дога
ющими
нского
▁чисто
▁человеком
▁Глав
▁цели
думы
мат
енный
▁территории
▁наша
▁дочь
несла
пом
АК
пор
пой
▁сек
тили
дался
нял
▁фут
▁выда
▁добра
▁внимания
ov
ана
▁работал
ствием
▁света
▁спас
▁жел
▁приоб
▁женщин
▁воду
гро
▁чему
народ
читать
pt
дах
лаг
шай
▁мат
▁190
дале
боль
▁пры
▁дороге
визи
▁ль
еме
▁пошел
▁Ос
вании
стями
нению
▁дорогу
▁готов
пет
эй
iginal
вяз
ОР
▁Без
нке
▁разно
▁особо
люб
▁понрави
▁студен
ссы
▁вышла
дной
▁успоко
▁секун
▁можешь
▁другое
▁напро
ффе
▁фон
жется
▁района
original
жного
▁пое
▁выход
мыс
енти
▁утром
чок
▁неде
▁отс
▁начало
▁необы
os
▁помощь
раба
▁пропа
обо
▁кафе
▁поднима
▁францу
нное
▁тяжело
▁Aboriginal
▁станет
▁взять
▁поверх
▁груди
▁англи
▁профессо
▁стреми
▁девушки
▁речь
▁Али
нца
▁районе
енном
кали
▁девочка
▁руководи
▁хло
образ
бов
кала
▁требу
▁62
▁разных
▁чай
▁душу
симо
▁впечат
ственная
▁Пав
▁отвер
▁Стра
▁оказалось
▁отдел
▁разные
▁стояла
▁Кроме
▁ref
▁Ис
▁времена
ины
▁большин
▁_
▁май
▁БИБ
▁встреча
▁начали
▁позд
▁послу
альном
ворачи
▁нём
▁ясно
лить
▁несколь
▁БИБЛИ
▁любой
▁смерть
лено
дка
▁суб
вшим
▁никаких
рика
▁жили
бка
▁сказа
хватил
▁лест
▁автомо
▁поста
▁дорого
▁находя
▁наше
▁похоже
▁одновременно
▁Давай
▁мето
rue
▁крови
▁ног
чался
вов
ковой
жка
▁отдель
▁лиш
пя
альную
▁перво
стю
▁дого
▁виду
▁такую
▁вопросы
▁каких
▁видела
▁Тебе
▁выпол
▁влия
age
▁КО
▁прожи
▁реги
чили
▁Именно
рица
▁Сло
пру
бь
▁разговари
▁обеспе
▁начи
▁рот
▁гер
▁дороги
чился
▁каза
жий
▁пошли
стая
▁Эта
▁фотографи
ссу
▁вверх
▁охра
▁кровь
▁усме
▁чудо
▁Пла
▁окружа
▁стране
▁свете
▁здоро
▁метал
▁литерату
▁обязательно
▁окна
гры
▁роль
▁круг
дьми
PE
▁четвер
▁февра
▁озна
онов
▁электро
тите
▁КНИ
люби
▁голосом
зить
▁боро
▁пришла
▁препо
лемен
▁вперед
юз
вела
▁ждать
надцать
▁Дар
▁хво
▁бур
▁трех
▁"t
▁источ
▁след
рёх
▁зве
▁кое
▁"true
шеб
ЛИЯ
▁правильно
▁Фа
ev
нила
гна
▁Наконец
цени
ГА
▁рассматри
▁рук
▁сро
▁решила
пел
▁гло
▁Москве
аля
▁цар
▁показа
▁решение
▁тря
▁самые
пута
▁зале
еркви
▁мерт
нг
▁дем
▁помощью
ссион
дера
стях
▁иди
▁вариан
▁поговори
ers
▁малы
▁отмет
▁путе
▁Впрочем
ow
▁Моло
нда
гий
▁пришел
енье
▁вечно
▁бар
▁моря
знакоми
цам
▁Москва
шими
сток
▁возь
виа
кции
▁указа
диви
▁преда
бки
▁цве
нта
▁Стали
▁администра
жено
▁Ана
лил
▁результате
▁цело
тик
▁жало
▁моему
▁ума
▁стихи
ровали
дку
▁скло
▁движения
▁девя
тилась
▁изо
▁молодо
▁мили
▁народа
▁окно
▁повери
▁Пос
▁двадцать
▁изда
▁следующий
▁АВСТРА
▁остался
чными
▁держа
кур
дишь
сный
▁Герма
▁дни
ходила
▁период
▁Пар
▁раскры
▁дать
▁50
▁бор
▁жени
▁составе
▁характер
▁отказ
женный
▁стены
▁каса
▁твои
пенно
интересо
▁разум
▁Андре
▁метров
▁бол
▁тур
▁ребен
▁гри
▁провер
▁Ген
▁машину
чим
▁Ком
▁Игорь
▁спиной
▁угро
▁пусты
▁последние
▁Рас
▁пошла
▁произнес
▁чемпиона
▁выступ
жены
тье
чон
▁лоша
щик
хнул
▁людьми
▁власть
нили
ствуют
▁временем
▁меха
▁обсу
▁первым
▁августа
▁40
▁какого
сила
сел
▁церков
▁услы
▁двига
▁проблемы
▁общества
▁Эй
▁обре
нная
▁губы
строй
em
▁новой
сия
▁зал
▁посмотрела
▁Нам
▁осозна
▁оба
телям
▁берегу
▁Пол
▁эмо
▁номер
▁искать
▁зато
раясь
▁интересно
▁Ее
▁заним
▁гар
гар
▁заму
▁марта
▁режи
▁участие
влек
▁Макси
▁посо
▁вез
▁реки
▁января
▁пытался
запно
тало
пись
▁экс
ствовала
лер
▁сентября
▁Чем
дри
тю
▁утро
▁вечером
чением
вка
ехала
кта
▁состоянии
▁АВСТРАЛИЯ
рования
▁увидела
▁ограни
um
енька
▁счет
влека
мяти
бло
сыпа
тяги
тных
▁заку
▁Жен
говорил
▁уверен
зом
▁таком
▁события
▁безопа
шко
▁воздух
▁говорила
▁помощи
OK
▁Мой
▁давай
▁рода
▁возможности
▁течение
▁твоя
стый
веро
▁учени
▁делает
▁населения
ждать
▁организа
▁ито
тания
▁Ска
чёт
КИ
кнов
▁In
▁мило
рка
нести
▁обер
▁предупре
лях
▁шел
лыми
▁внимательно
▁июля
orld
▁Алексей
▁руковод
▁нужен
▁Саша
▁юно
эр
▁y
▁EURO
▁1000
▁фра
▁открыл
▁пес
▁словами
▁EUROPE
▁села
▁говорили
▁теа
▁декабря
▁посвя
▁инстру
▁огонь
жался
кура
▁сю
▁автор
▁страшно
▁обстоя
▁сда
▁дальней
▁понятно
лье
▁Ше
▁сердца
▁кивнул
▁BO
емой
▁ветер
▁забра
▁развития
лле
▁жил
ници
▁пунк
▁человеку
▁мра
▁знаете
сам
▁боли
▁школы
ТУ
▁улыбнулась
стить
▁2000
▁Девушка
▁шаг
▁сра
чками
▁огля
▁ВЕК
нский
▁напи
▁сты
▁рав
▁использу
▁комнаты
тана
▁июня
евна
▁ближе
▁никому
тила
▁заслу
▁возму
пен
▁сезо
▁коллек
ry
цер
▁Pro
▁обнаружи
▁узнать
▁осве
▁Михаил
▁воспомина
▁встал
▁th
▁вскоре
▁спор
▁годах
▁Дума
▁позже
▁оказалась
▁месяц
▁мело
тку
▁Гра
чих
▁i
▁Три
▁губер
сф
▁Наде
лий
никам
▁Мама
▁прият
▁октября
▁Жиз
ними
▁Зо
▁сва
▁сре
▁предмет
▁Воло
▁экспе
▁BOOK
▁Тре
▁Кор
раздо
▁Russian
▁Кстати
▁Ги
▁сможет
▁громко
▁награ
▁оборо
▁желание
▁друзей
▁пусто
▁полез
стный
жё
вит
▁Сколько
▁фанта
▁пау
вана
▁Сы
▁29
▁смысле
▁Наверное
▁тр
▁описа
▁мужчины
ходило
▁привет
▁километ
▁Глава
▁имел
дные
чено
▁замер
▁оставля
щими
жив
вёр
▁неделю
кса
чнее
▁смысл
ково
▁типа
▁опыт
▁ужас
диться
▁роман
▁чере
▁выну
ual
▁досто
▁компании
▁могло
▁поса
▁однажды
вав
шта
ьют
▁апреля
▁содержа
▁коль
▁решили
▁Шу
пози
▁запла
▁семьи
▁никакого
▁лицом
▁минуту
▁J
▁нравится
▁трево
оборот
▁Виктор
▁Любо
более
тные
▁Ры
кри
▁Было
▁нужна
▁букв
▁ладно
▁стола
жений
лим
▁недавно
▁ори
▁Ино
▁сига
▁осторожно
▁трудом
▁фами
йдя
▁школе
▁сторон
▁ближай
чном
▁реш
▁Исто
▁коридо
▁удар
стую
▁кровати
▁млад
▁подошел
▁повы
▁стояли
▁продолжал
▁крити
верь
вку
▁память
▁маги
пку
▁смотрела
▁лё
вился
▁прекрасно
▁конец
▁жал
▁памяти
▁ров
довал
▁Возможно
▁Люди
нился
щении
сона
▁воспри
▁дура
стной
▁волшеб
▁Кла
va
▁пору
▁папа
▁смотрит
▁зага
▁мужа
▁бесс
▁путеше
раи
дую
▁Ещё
нос
кор
ило
▁государства
▁отме
▁прикры
ету
ib
▁сел
▁непро
▁Мари
▁порядке
▁Отец
▁сознание
жие
▁которому
▁хуже
▁моим
▁перево
▁осуще
енные
▁Ната
дения
▁Вд
▁Авто
▁World
▁появился
▁ryuntyu
▁&
▁Ей
▁зв
▁шли
▁охо
▁спря
▁благодар
▁Po
нности
▁случайно
▁рублей
▁слышал
тек
жная
▁см
▁действия
▁думала
▁арти
фици
▁любит
▁2016
▁Ху
▁09
▁показалось
▁сожал
стоит
▁Куда
▁англий
▁Рабо
▁Чего
▁води
▁любил
▁разби
пки
▁нав
рили
▁француз
▁гряз
▁грудь
▁увели
форми
▁дыха
фы
elle
▁100
▁новых
титься
▁бом
▁ата
▁неви
тельную
▁Дже
▁Неужели
▁иметь
▁Между
▁родствен
▁Разве
▁ноября
▁ат
▁степени
▁поводу
▁Москов
▁книга
▁рождения
▁мастер
▁север
▁абсолютно
кос
▁Ай
дж
▁заве
▁восста
▁исследова
чив
▁винова
▁скажу
▁гораздо
▁первую
▁специали
▁пытаясь
▁автобу
▁Сна
▁проше
джа
▁Ново
▁эффе
▁форму
▁семье
▁руке
▁поздно
▁твер
▁Ники
▁Доб
▁Ря
вки
▁насла
▁брать
▁развер
ницей
▁количество
▁историю
▁Ленин
▁начинает
▁концов
▁странно
нную
▁Int
▁сове
▁религи
нятно
▁медици
пать
▁растер
▁управля
▁Дол
драв
▁Ага
▁рассу
всегда
ёшь
ленного
▁Муж
▁Щ
лам
▁ими
▁лей
▁солдат
▁нескольких
▁чуде
▁раст
льный
▁Констан
▁Бар
▁другую
нями
▁связан
▁существует
жела
▁двумя
▁название
▁поря
▁шесть
▁эпи
▁зали
дёт
стрее
гин
▁несмотря
тона
зия
▁испол
▁лежа
▁февраля
▁поезд
дают
▁мальчик
▁Ника
▁счастье
▁биз
▁пожи
▁Ой
▁звез
▁познакоми
▁системы
▁зака
▁небольшой
▁игру
▁академи
▁пен
▁непре
МИ
нным
▁НЕ
пры
куль
▁редко
▁Нико
▁поо
ждает
▁разгово
▁печ
▁партии
▁2001
▁кофе
▁подготов
▁Анна
▁христиан
▁2011
ht
▁объясня
▁узнал
▁улицу
▁состояние
ra
▁прис
лке
▁нежно
▁струк
▁глупо
▁можем
▁Бра
▁плем
▁совме
▁Российской
▁поднял
▁пона
▁мужчин
▁плю
ily
▁смогу
▁смотря
йтесь
▁щ
▁выбо
▁знаком
▁зара
▁жесто
▁моро
▁твоей
▁de
няка
▁связа
▁предложил
жена
▁своём
▁напротив
зован
вёл
▁нос
▁Фо
▁вслед
▁Же
▁Благо
▁маленький
стные
▁знали
▁раза
▁скри
чало
▁отсюда
▁сложно
дных
▁больно
▁фрон
▁профессион
▁верх
руп
▁благодаря
рно
хожу
сии
▁Her
▁силой
▁импера
▁радио
▁пожалуйста
▁домаш
тного
бок
телю
▁потя
▁вода
нье
▁соз
▁священ
▁стен
▁цивили
ОН
ваний
▁слабо
▁нашу
▁ХХ
▁Луч
▁кула
нёс
▁шут
▁нев
▁повторя
▁примерно
▁основном
▁реак
▁деревя
▁оправ
▁посмотреть
▁куп
▁придется
▁Какой
пах
▁усмех
▁погру
мас
альше
▁прили
долго
чики
▁проте
▁футбо
▁хол
▁комплек
▁веду
бля
чика
▁паро
ческими
▁Russia
▁пришли
рение
▁двое
▁выдер
▁граждан
ллю
ехать
хой
▁лета
▁вечера
▁приказ
▁честь
▁Человек
▁постепенно
▁Кажды
▁возмо
слов
▁El
ДА
▁ногами
▁31
▁предлага
шит
LI
реев
▁fam
алом
▁Прости
▁позна
▁специально
▁шум
▁район
▁Вдруг
▁тет
▁зат
▁пользо
▁почувствовал
скать
▁получить
ваем
жите
▁тала
▁вести
водит
▁нечто
▁Полу
▁ступ
▁US
▁колле
▁пользу
▁чле
▁Гре
▁корпу
▁зовут
▁Олег
▁опу
▁k
ственную
женно
▁покло
муще
▁кстати
▁карто
туда
▁Вз
▁выпи
▁анали
▁Евг
▁годов
▁кара
РЕ
сках
▁предполо
▁десяти
▁умира
вец
▁Перед
▁теря
NO
▁взаимо
довлет
▁Мои
▁функ
ант
▁конкре
▁кот
сне
гала
▁Вме
▁шла
th
▁разрабо
ятся
▁сущ
▁оказались
▁ез
таться
одо
пустил
▁девушку
▁отре
▁км
вшегося
▁Ши
▁выр
рыва
▁Каждый
▁реда
▁заставля
рус
▁взяла
▁аре
фика
▁востор
▁высоко
▁нужны
▁наоборот
▁Боже
▁лесу
▁каждой
▁самому
▁испыты
▁работает
▁вкус
дится
lor
▁нашем
зами
▁восем
стым
▁БИБЛИОТ
▁реали
▁МИ
емый
▁авиа
▁весело
▁напомина
▁заб
▁Никто
▁невы
▁выполня
▁Бело
нина
▁Ост
▁книгу
тих
ваешь
▁некоторое
▁услышал
щина
▁логи
▁Пушки
▁2015
▁водой
вив
▁точки
▁будь
▁Богу
▁первые
стных
▁семья
▁обнару
▁ситуации
стали
шили
▁оско
▁family
десят
▁совершен
▁церкви
▁квартиру
мии
▁выи
ist
ерен
▁понимал
▁ть
▁писать
сна
▁№
лями
ждён
▁сопрово
▁финан
▁Север
▁зрения
▁оз
стры
лился
▁Вале
ленная
▁чаще
▁напа
тина
▁плечами
▁вышли
▁бю
▁библиоте
▁расши
▁группа
ТА
▁очередной
▁упа
▁техни
▁школу
▁суд
▁международ
▁2006
▁раздра
▁стату
▁вернуться
▁нарко
▁Её
▁стороне
▁костю
▁плечо
▁кате
▁культуры
ющихся
▁подумала
чении
▁водо
▁поддержи
▁движение
▁вон
▁Ии
▁эпо
тим
▁стару
дец
▁сильнее
▁приез
▁анге
▁восклик
▁Це
голь
▁запах
гну
дился
вшее
▁Сере
▁ля
▁диа
▁опы
▁поступ
жён
▁демон
▁яв
▁краса
▁тё
▁Поз
▁класси
▁Интере
▁раду
▁суме
▁сор
▁появилась
▁являются
▁нечего
▁доби
▁2014
вшейся
▁углу
ента
ился
▁опреде
▁недоста
дленно
жную
▁189
▁некоторых
▁препода
язы
▁Иль
▁мель
▁Оно
пара
▁Сначала
▁БИБЛИОТЕК
▁оружие
▁последнее
▁центре
рование
▁письмо
▁воору
читься
▁полков
ведливо
▁оцени
▁сделала
▁остальные
▁родители
ЕЛ
▁Оп
▁пересе
логии
▁навсегда
чительно
▁большая
▁Pub
сей
▁брата
▁руба
▁проблема
▁Sy
перии
▁середи
▁вспомнил
енных
▁Восто
летел
▁встречи
▁Послед
▁живу
▁честно
▁Россиянах
▁Иису
▁БИБЛИОТЕКE
30
писи
▁бер
▁каком
▁миг
▁ниже
▁доче
▁одному
▁II
▁посту
рился
ссия
ctual
▁войска
▁Василь
▁продук
▁имеют
▁озе
▁Кни
▁читать
▁принял
▁страх
пь
▁свидетель
▁сосе
▁выго
▁другими
▁шка
▁транспо
▁демокра
▁другому
▁St
▁сос
▁система
▁вдоль
▁вдох
▁Ser
▁Иногда
туре
▁Согла
▁председа
зей
енной
▁определи
ографи
▁языке
▁взрос
▁зай
▁аэ
itage
▁нор
dn
▁информации
▁2017
канчи
▁капитан
▁плен
▁Tay
чались
женные
жке
▁выво
▁Taylor
▁вспы
торов
▁Амери
дон
▁восхи
▁Был
щался
▁съе
▁опас
▁захва
виться
▁впереди
▁остались
ellectual
тке
▁поми
ый
зой
▁моё
▁Elva
нность
▁подс
дная
▁деятельности
▁припо
▁забыл
▁Стран
▁Heritage
▁сия
▁техно
ющиеся
▁план
▁зао
▁скла
▁протянул
▁элемен
▁лёг
вшими
▁незави
▁наиболее
чета
стых
▁Тро
▁Сво
ченный
лами
бые
▁Два
енько
▁отчая
▁исполни
▁полной
▁самая
шали
▁сидя
▁Привет
▁телеви
низм
ненно
▁Лё
▁родился
▁принять
 г
▁прогу
▁#
▁супру
▁Григо
сали
дного
дю
▁Intellectual
коле
▁столом
▁сообра
▁памят
▁учё
▁нашел
дравству
▁месяца
▁большим
стного
▁сидела
▁получилось
▁видели
▁Аб
▁писал
шала
▁еврей
▁un
▁чувствовал
нью
▁ваго
телось
▁имен
▁Итак
▁плечи
▁Дей
АН
▁Джон
тную
▁поль
▁бесе
▁шан
ссажи
▁катего
▁расстоя
▁Оста
▁Ольга
▁наме
▁живет
▁хватит
▁Борис
ровала
шками
тились
▁тём
▁намер
ёрт
▁небес
▁le
ходу
чалось
▁слуша
▁учеб
▁рано
цвет
▁сознания
года
▁остановился
▁видит
▁спину
▁подчи
▁День
▁бла
▁понимаешь
▁Пари
▁стене
etry
▁строго
▁большие
туру
▁стена
▁мгновение
▁Ад
лел
▁событий
▁ваш
грал
▁Prose
▁Сов
ёд
▁словам
▁журнали
▁квартире
▁вероятно
▁нашли
▁al
▁моги
▁ау
▁приятно
▁карь
▁Мария
▁знамени
▁часы
▁брю
▁песни
▁поспе
▁вздохнул
▁спосо
▁размыш
▁Тво
ленным
ндида
эль
▁тысячи
▁ката
приятия
▁Poetry
ДО
▁знают
▁монасты
ce
чена
▁отря
чают
▁приобре
следования
креп
хал
▁генерал
▁новую
глу
▁контра
▁отде
▁бло
▁дух
чия
▁Моя
▁оказа
довать
емого
▁множество
ропей
меется
▁счастья
▁обма
▁Тру
▁организации
ревно
▁Геор
▁буквально
пустить
▁ребята
▁изба
▁внезапно
▁маг
▁ресто
мера
▁искрен
▁посмотри
▁строй
▁уйти
▁выстре
▁пожа
льной
▁крыль
▁довер
▁Дени
▁добы
▁глубоко
ЦИИ
ВИ
▁Мир
▁форме
тики
нимала
▁находился
▁жизнью
ствовали
пят
▁Кре
▁этими
ak
▁1997
▁родителей
▁долла
кает
▁теп
▁генера
▁доктор
▁настоящее
скочил
▁получается
стами
▁Подо
▁Цен
▁центр
нём
▁прошеп
▁развед
▁спасибо
▁Иванов
▁подошла
▁око
ментов
▁нало
ЕЛЬ
▁Неко
▁удовлет
▁любопыт
▁рам
▁пить
▁симво
▁ранее
чко
▁управления
▁данным
▁Василий
▁живут
▁камен
редо
петь
▁тему
▁призы
▁Однажды
▁игры
▁обли
тная
▁трёх
▁Среди
▁2013
юза
▁оттуда
▁трав
▁желания
▁религиоз
▁вспомина
▁Оле
▁страха
dney
▁Sydney
енного
▁культур
▁серьёз
▁подви
енький
▁прось
▁определя
слей
чиков
▁оке
▁труд
ченные
▁спустя
▁достой
тию
ностью
▁художе
▁выбира
несли
▁иллю
▁центра
ваюсь
▁com
▁упал
▁любя
гент
▁сидели
▁приходилось
▁РФ
▁языка
видно
▁присо
▁Москвы
▁новое
▁парня
▁окончательно
▁Таким
лимпи
▁космо
жалась
лко
▁поднялся
▁психи
▁фло
cad
енью
▁Ed
▁Павел
▁заявил
ступила
la
▁угодно
тета
▁молит
▁леса
▁нож
жению
това
▁недели
▁попал
art
▁чужо
▁девчон
▁откров
▁ребенка
ится
ставить
▁средства
▁останавли
жают
ера
▁проза
▁выйти
▁Какая
ялся
▁избе
▁брига
ступает
НОМ
▁написал
▁твори
▁2009
гнал
▁60
▁Вскоре
тное
▁Дело
▁вку
▁отрица
▁украин
▁молод
▁сидит
зах
UL
▁выясни
▁никакой
▁стари
▁Фон
циях
пель
▁вя
▁лейтен
▁Прави
▁гне
щала
▁противополо
▁возбу
▁ходить
our
▁большую
▁ов
▁хотели
▁многочис
рыз
▁дали
▁третий
▁старый
▁достал
альными
▁улыбкой
▁2007
гово
▁Арт
▁столе
▁муд
▁Украины
▁деревья
▁одни
▁хит
▁воздухе
▁Время
▁2008
руют
▁уровне
▁клад
▁команду
▁горы
щали
▁Мол
▁первом
чках
▁отдал
роди
ИС
▁продолжил
▁машина
▁тюрь
▁вино
▁пребы
▁Государ
▁лагер
рать
ходе
ропо
▁сказали
▁дав
▁думаешь
▁указы
▁гори
▁Books
▁осталась
▁разобра
▁лежал
▁Первый
▁жителей
LOG
▁учили
▁быстрее
рхи
димо
▁радость
тным
вами
▁Нес
бин
▁процесс
▁играть
▁осуществ
зация
ЗА
▁188
щались
▁солне
▁боже
▁хватает
▁сей
▁согласился
ряс
▁жены
▁гордо
▁незнако
леб
КЕ
▁Михай
▁закри
▁USA
▁зная
ктив
▁перес
▁Тур
▁Господи
▁такими
▁шеп
ступить
▁Петербург
сред
ждении
▁далее
▁ски
▁прежнему
▁Много
▁война
▁непло
шила
▁факт
▁пля
▁ред
▁оза
▁минуты
ственности
▁устраи
▁постав
▁крайней
▁крепо
▁труда
▁писто
▁носи
суль
▁Мно
▁чь
▁Откуда
мены
▁депута
▁дому
▁мыш
▁Второй
▁возгла
od
op
▁слезы
▁бросил
▁кандида
LOGY
▁еле
▁машине
▁Аф
TURO
TUROLOGY
▁положение
▁сделали
▁секунду
ус
▁Марина
▁крепко
тече
▁Татья
▁делал
▁зри
▁собственной
▁удивля
▁рассказал
yle
ВД
рный
▁распоря
▁заметила
нешь
▁зря
▁Александра
▁лежит
▁2004
▁причина
ud
▁ока
▁проник
бую
▁инжен
чилась
▁Поли
▁природы
ственность
▁переста
ом
▁Мор
▁жу
▁пройти
▁сколь
▁Дмитрий
РУ
▁иду
▁службы
▁называется
▁сомне
▁покой
ложил
▁ке
цепи
▁клуб
▁загля
▁ЗА
▁отор
▁попросил
▁массо
▁повез
▁знания
▁число
▁радости
▁попытался
бах
▁член
▁поб
▁Голо
▁несчаст
▁литератур
▁поговорить
▁представить
ватель
женных
емых
▁Смотри
▁пож
вной
▁рю
▁пишет
▁дворе
▁шту
▁Также
▁легче
ri
▁посы
низма
▁Анто
▁броса
бая
зади
▁рису
▁Юрий
▁ждал
▁можете
▁везде
▁гал
▁мас
▁выпу
ast
▁КНИГА
▁хотите
▁Кирил
▁Джей
бежал
▁русских
▁вов
▁ушел
▁ору
▁порядок
▁фильм
чалась
жих
▁дочери
▁первое
▁кле
стным
▁Похо
нимали
▁целью
▁кло
▁переме
▁сожалению
▁Зи
жается
нений
▁первая
▁скром
▁Пой
▁on
▁актив
▁естественно
▁насколько
▁иностран
ваны
гим
▁другая
сад
▁нака
▁самостоя
▁деви
▁которыми
емые
▁кровать
▁00
▁солнца
▁трубку
ющийся
▁русский
щаясь
▁Тол
жаться
▁спусти
▁одея
тием
▁телефо
▁Вар
▁платье
▁Ке
▁форми
ТИ
▁широко
гают
▁команды
▁идёт
ly
▁торже
йки
гром
▁пассажи
тором
▁изго
▁ушла
▁рассе
▁улицы
ОРМ
▁Жизнь
нусь
▁бит
дли
стречу
бий
IB
▁предпри
ктором
arg
▁Acad
▁музык
полу
мотрю
ив
▁бабушка
▁удоб
▁прино
▁второго
▁голоса
▁XV
OR
чах
▁уши
▁пола
КАД
▁оставалось
PH
▁связь
▁подвер
ставил
тически
▁Нем
▁происходя
брал
▁электри
шок
▁нормально
▁наве
▁всякий
хотвор
▁пост
ванию
▁момента
▁побы
▁снег
▁Любовь
гался
▁Гро
OGRA
тит
PHY
OGRAPHY
мане
▁BIB
▁ваши
▁появились
▁ногу
спублики
▁квартиры
▁энергии
▁1941
▁Yu
▁считать
▁старо
▁style
▁очи
▁Австра
▁сверху
▁заканчи
ступать
нте
▁Иванович
▁смотрели
▁дорогой
▁зало
▁энерги
▁be
чков
рной
▁добавил
▁микро
▁различных
▁рассказать
▁New
шено
рели
▁опасно
▁вось
литься
читал
вале
▁приблизи
ary
▁условиях
▁фона
▁UNO
▁торго
▁IIA
▁мнению
руя
▁полага
▁Гру
▁ощущение
▁отличие
▁Джо
льные
ULTUROLOGY
▁Израи
▁Зато
▁поду
▁шах
зво
▁Германии
▁судьба
▁XI
чность
▁месяцев
▁вытащи
▁яко
жнее
▁обеща
▁Нужно
▁доволь
▁литературо
▁роли
шной
вос
крови
▁королев
цах
▁объяснить
▁главный
▁частности
▁снима
ждал
▁Европы
▁станции
▁приве
чению
лял
▁пови
▁лето
▁клет
▁AUSTRALIAN
мно
▁индиви
▁облег
▁охот
бал
▁1999
▁ВЕ
▁доми
▁Кры
▁ответа
▁местах
▁BIBLI
▁розо
▁BIBLIOGRAPHY
▁пространство
▁опро
ново
▁Гар
▁подар
▁отправля
▁ничто
зин
▁Поль
▁сестра
▁оказывается
are
рисо
▁РОССИЯ
▁наук
▁жут
▁Санкт
▁хороший
▁Анато
▁колени
▁камень
▁хотят
▁сигаре
эм
▁русской
▁зар
рали
▁отношении
▁Особ
▁сообщил
▁выходит
▁горизо
▁Здравству
▁нрав
хла
▁посети
▁Например
▁наслед
▁марш
▁секрета
▁Ar
▁раздался
водить
▁яро
темати
▁вор
▁останов
тивно
▁влюб
▁Больше
ющем
▁достоин
▁воин
▁согласно
▁Вся
стям
стьян
вато
скоязы
жались
чев
▁деревня
▁вида
езде
▁деду
▁твоего
▁деревне
бю
▁отказы
▁еже
▁ВО
▁Интер
▁многое
▁безопасности
▁показал
▁регу
▁Нас
▁Катя
▁никуда
брь
▁убить
▁зарабо
▁Тер
▁решения
▁возника
▁активно
▁фир
▁неуда
▁наблюда
▁лез
▁восемь
▁площади
▁Говори
руется
▁секунд
▁офице
▁Опять
▁большое
▁ухо
▁Воро
тков
▁волну
▁ласко
▁мечта
рай
▁баш
▁проявля
▁спут
▁твою
▁дождь
рту
▁прошла
▁заниматься
▁воде
цкий
▁ам
▁края
▁незна
▁начальник
нному
▁профессор
жима
гнуть
▁Vol
▁ряд
способ
▁каждом
▁учены
тет
низу
▁класс
▁Обра
▁экра
▁вое
▁накло
▁удивился
ченно
▁Фили
▁Господь
ванный
▁пальцы
▁соответству
▁схвати
▁замуж
▁ссы
печа
▁зелены
▁ехать
▁СО
▁РЮ
▁коп
▁промыш
▁русского
▁причем
ровки
▁выбор
праши
▁стрем
▁прислу
▁сго
▁32
рки
▁одет
зила
яться
ex
▁Запад
шав
▁формы
рабаты
▁Максим
▁45
▁будущее
▁наверняка
▁целый
▁кладби
▁одина
▁Эль
▁вообра
▁касается
НТЮ
▁Маша
▁хозяин
▁сцена
▁любить
▁РЮНТЮ
▁детства
▁линии
▁АКАД
▁нынеш
нией
▁директор
▁Интересно
▁учитель
▁замести
▁устало
▁женой
▁непосред
джи
▁опубли
▁замол
▁провери
▁пет
▁АКАДЕМ
▁веру
▁смени
▁оцен
▁видом
▁итоге
леты
меялся
дыха
▁тиши
ленную
дке
рку
гнула
▁воспоминания
▁автора
▁Лишь
▁противника
▁зубы
▁видишь
единя
▁пошёл
лал
▁жест
▁справи
кнуть
зили
▁леген
сур
▁вряд
▁CULTUROLOGY
сторон
ял
▁засты
▁ПРО
алисти
▁европей
▁Вера
▁бок
if
ess
дкой
▁собе
▁1991
▁популяр
▁светло
▁заба
▁метро
вена
▁здания
▁смогла
▁полю
▁раство
▁наказа
▁сапо
▁шею
▁звук
▁бог
▁прошлого
▁произнесла
▁спаса
▁подумать
лян
▁Думаю
▁поцелу
▁поцело
▁констру
▁станов
хали
▁нах
▁плани
ОРМАТ
стное
созна
▁кожа
сан
юще
▁зелё
сив
жав
▁нашим
▁класса
▁централь
АЛЬ
▁пойти
прос
▁китай
▁прокля
тяну
▁вру
гель
▁компьют
аги
▁отношение
▁хватало
▁свадь
▁Москву
енья
▁дает
▁следова
ченных
▁Земле
▁охран
▁незамет
▁философи
доби
▁союз
ждается
город
▁дыхание
▁вспоми
▁Мало
ченко
▁моно
ДИ
▁рад
▁сегодняш
шель
▁Нау
▁мировой
▁друж
щет
▁разде
▁игро
▁духа
▁правило
▁женщину
▁эль
▁вои
▁избран
▁суда
▁возрасте
▁верить
пот
▁старик
▁усмехнулся
тол
▁философ
▁остается
▁Мон
▁боло
▁знак
▁Пло
▁кухню
▁Макс
оны
чений
полз
▁навстречу
дик
iz
▁прошлом
▁косми
льного
▁доступ
▁Мат
емая
АР
▁Вообще
торые
▁разда
▁лам
▁пласти
▁подозре
бенок
▁услу
▁ниж
▁Каз
▁Одно
▁ву
▁прия
чён
▁войне
▁дежу
▁Антон
▁речи
▁близко
▁большинство
ik
▁тени
▁предела
▁купи
▁математи
бых
ight
еми
▁мыслей
▁щи
▁университета
▁жила
дию
▁приходится
▁политика
▁запомни
стен
▁Дон
жат
▁неизвестно
мь
▁остаться
▁купить
▁предна
▁исполня
▁днев
зит
▁душ
▁уте
▁Ари
▁меж
гани
пка
▁направлении
▁планеты
деб
чне
▁делом
▁Мал
▁прер
дным
▁чувств
▁окра
щины
вят
▁ярко
▁настоящий
▁исте
▁означает
▁установи
рел
дение
▁искусства
рья
▁прошу
▁положил
▁чинов
теллек
▁обстанов
▁ходу
▁провед
▁названием
водя
▁радостно
боро
▁положи
▁мнение
думал
▁сидеть
▁Гали
▁Знаешь
▁отдела
предел
▁боле
▁назвать
▁пут
едини
▁Петро
▁вина
пати
редото
▁знаем
дне
ковых
▁экспери
▁спортив
дея
▁обратился
МА
бели
▁направля
▁Петр
▁Вой
▁целом
▁музе
жан
ab
гети
ity
▁действий
▁Жу
▁лы
▁дис
▁Петрович
▁Англи
▁темпера
стил
▁187
▁отдыха
▁пальцем
est
▁объяс
▁вперёд
▁приходит
ционной
▁мон
пира
▁договори
▁пишу
▁обозна
йка
▁прошел
▁Земли
▁уровня
▁вашей
▁литературоведение
тации
НАЯ
▁j
▁marg
поли
▁сути
▁Доро
ure
бою
▁япо
oc
ТЬ
чком
▁реша
▁поры
▁ответить
▁Света
нутри
▁словом
эта
▁Мед
▁немедленно
▁устави
▁писатель
▁использовать
▁принес
▁Какие
кну
▁margin
▁Особенно
бина
▁постара
▁Викто
▁приехал
▁образования
куратно
▁Христа
▁тридцать
▁186
▁Эн
шев
▁жену
▁аро
▁Иди
▁смысла
рк
▁письма
▁инте
▁угол
форм
▁макси
▁Ок
▁парт
тру
▁правду
▁информацию
▁дорога
▁основе
▁лени
▁доказа
▁Лучше
▁возраста
чности
ьте
▁Ца
▁надое
▁заказ
▁постели
▁Над
▁новая
▁герои
▁Дер
▁блю
▁рыца
▁войну
rit
товой
▁Само
▁серебря
вия
▁тяжё
кипа
▁1990
▁Обы
▁машин
щиков
етесь
▁оставил
кол
сного
щением
▁Высо
кона
ун
▁ИНТ
▁задумчиво
илась
▁Кур
▁алкого
▁русском
▁Франции
▁уло
▁привез
▁Видимо
▁Русскоязы
стка
ждая
где
сные
▁бесконечно
▁прозра
голо
вьев
▁крова
▁впрочем
▁циф
▁трудо
▁Мальчи
ap
довало
новения
▁Тихо
▁увидев
ill
мут
кл
ЦИ
хан
жное
▁верно
▁Том
▁Несколько
▁1945
▁ошиб
▁запу
▁жар
▁индивиду
▁МО
НЫЙ
▁порой
▁сби
▁Вет
▁дополни
рачи
▁самоу
▁автомоби
▁любила
▁РА
▁Вне
▁понимать
▁Дэ
▁сф
▁удовольствием
▁оставить
йн
рпи
▁магазин
og
▁сложи
▁проро
▁що
▁Мер
▁турни
▁1998
▁моем
▁Понима
▁идут
дыду
▁персона
▁Зе
▁идея
пок
▁начать
▁говорится
женной
▁book
луч
▁Хи
вающий
оти
▁обви
▁КП
▁потерял
чам
▁семи
ые
▁Эли
▁Ль
▁двой
▁миру
▁лицу
▁is
▁частью
▁господин
▁поставил
▁форм
циями
▁бумаги
▁36
▁впечатление
▁делают
▁спло
▁небольшо
▁каждым
▁успела
▁суть
чаю
ропи
▁пох
послед
▁деревьев
▁нашла
▁попробо
▁прошли
никах
▁показать
▁Извини
▁воздей
▁значение
▁пойду
av
▁произвед
▁Нью
▁организо
ляли
▁70
▁говоришь
▁Кали
▁церковь
eyev
▁зла
▁разбира
▁богат
▁предстоя
▁масте
▁дед
вшуюся
▁ВС
▁мета
рите
▁Солнце
деся
енная
▁москов
ленное
бар
▁Совета
▁существу
▁красави
▁Ут
▁гим
ляет
▁книге
▁Русскоязычная
▁сало
▁дай
▁зала
▁село
коль
▁форма
▁ходе
▁заби
▁туал
▁получила
▁дре
ссив
▁попы
▁чрез
▁главным
▁бизнес
щь
▁Дево
▁стихотвор
▁наступ
▁трое
▁попасть
▁приме
▁будете
▁80
▁зда
ых
▁происхо
▁оку
▁отправился
▁Нео
мить
▁Жан
▁взо
▁живой
▁направился
тика
▁конфлик
▁преи
▁Лена
▁сорок
чом
▁Христо
▁прие
▁жизнен
▁образу
последствии
▁долларов
▁внутрь
▁музыка
▁дивизи
▁жаль
бир
▁РУ
ковые
▁Анге
рода
▁корре
▁колхо
▁пришёл
▁Тор
далеко
▁открыла
чью
▁животных
▁шести
▁чувствую
каи
▁деревни
▁вопросов
дерации
▁гармо
▁Петров
нек
▁ворот
▁сбе
▁ябло
▁личности
▁срок
▁полный
▁слушать
ec
▁справедливо
лева
▁хлеб
▁транс
▁непонят
▁уса
▁Разу
▁Многие
▁Роб
▁документы
зар
▁существа
▁кан
ологии
чник
люсь
▁хру
▁пойм
▁Всем
клад
▁огромный
▁текст
хнула
▁Степа
▁вопло
▁уровень
▁преодо
▁кухне
▁посла
ёк
▁противоре
нера
▁Миро
▁повернулся
ссер
▁пещ
▁послыш
▁нако
▁05
▁патри
гут
интересовался
▁слё
▁написано
▁корабль
▁стой
диль
стки
▁командир
▁относительно
▁трени
▁иску
▁АН
▁вернулась
тят
▁старший
▁вен
шат
▁сторонам
катери
▁скажет
▁мусо
тельном
▁крестьян
▁вещей
▁производи
▁рекла
SW
▁принце
няла
▁he
▁девочки
▁зажи
▁взор
▁деть
мысли
▁Кол
▁Ответ
▁Верхов
▁пале
енькая
▁рассла
▁главе
▁считал
▁Nur
▁рей
▁провин
гно
▁верши
▁белый
▁осмотре
▁вере
стря
▁лов
▁Лиза
▁рва
▁сма
▁слад
чём
▁ею
▁твоих
▁пыль
▁герой
▁президент
▁неи
брать
▁отдох
▁боги
▁селе
▁Ак
▁правитель
▁u
▁Един
▁прием
▁растеря
▁Рядом
▁звон
сная
 %
▁коммуни
▁неба
часа
▁Вспо
йт
▁медве
▁Откры
▁произведения
ith
▁одежду
▁постра
▁интеллек
▁предыду
▁кончи
шении
лили
▁рим
щихся
▁маленькая
▁изум
▁камер
цеп
▁изоб
▁Женщина
▁претен
▁собесед
▁задер
▁рассказывал
▁Расс
тельными
▁Глу
вому
дняя
ОГ
▁тишина
▁сосредото
мать
ЕНИ
▁забыть
▁вспомнить
▁сверх
▁Земля
▁Илья
лог
▁ждет
▁пригото
▁горь
комен
▁русские
ъе
ждений
▁делу
душ
▁домов
▁мгновенно
ДУ
▁цветы
лана
дное
▁пришло
▁несо
▁Ци
▁пробу
▁юри
▁картины
▁военно
▁возвы
▁90
▁Кажется
▁стараясь
▁имели
▁читал
жными
▁понимая
▁сзади
▁пытается
▁33
▁Джа
▁бежать
▁поу
▁Миша
ковский
▁Тебя
дена
▁штур
▁последних
▁Скоро
▁здание
поль
▁православ
▁единственный
▁предназна
▁компания
▁понятия
▁иной
▁Nureyev
▁лоб
▁опла
▁остальных
жна
▁укры
▁звер
▁Спо
▁NSW
▁пальцами
▁Весь
шены
▁Великой
▁победи
фов
ine
нька
▁детстве
ёнка
▁СИ
▁Бро
▁Кру
▁аккуратно
▁Несмотря
ale
▁замок
лл
роят
енным
▁спросить
мум
ЕС
▁красно
▁Мать
вик
надцати
лович
▁дверью
вшаяся
▁конкур
▁распростран
▁таин
▁вслу
▁боюсь
▁сотни
▁извини
▁Екатери
▁мужик
▁основа
▁сокра
▁клуба
▁компьютер
▁нерв
▁матер
▁Tim
▁сохрани
▁каче
▁производства
▁проби
леть
▁должность
▁точнее
вии
▁преобра
лично
▁окре
▁Хоть
▁будучи
▁берег
тался
▁01
▁ребенок
▁през
III
▁народов
▁молодых
лец
▁состоит
летела
▁последова
▁лестнице
▁Зак
▁37
▁пыталась
▁самим
▁бого
▁спасти
▁мен
nd
▁Алекс
▁свободы
▁Пожал
▁устрой
▁телом
▁пенси
твор
▁упомина
ленности
▁дым
▁пал
▁курт
▁накры
▁обстоятельства
▁талант
▁холодно
▁уга
▁хлоп
▁днем
▁тща
▁тка
▁Сталин
▁институт
▁судьбы
▁роз
▁интересу
кер
▁Вадим
▁Дра
▁отры
▁родной
▁последнего
▁СЕР
▁Уви
▁спек
▁компози
▁бесконе
фф
▁общество
▁Уж
▁человечества
ступили
▁воскрес
▁беспоко
гри
▁Эр
мани
лька
▁07
▁копи
▁звуки
▁вокз
▁Золо
бым
▁километров
▁получили
▁славя
ИЙ
мости
▁ваше
хар
▁Новый
▁причине
▁видео
ere
стого
▁процен
вилась
▁04
нько
▁прида
нении
▁маршру
симости
▁краю
▁эн
тк
▁КУ
▁впло
▁факуль
▁психологи
ален
щены
▁агре
▁Тай
▁считает
▁Бор
▁Лон
▁скажи
▁Всего
▁великоле
стная
▁соли
▁Ох
▁выхода
▁уют
ую
ственном
▁вес
▁Кара
▁намного
▁начальника
шенный
▁самую
▁похоро
▁ладони
сками
▁прогре
гант
▁адрес
▁уверенно
▁сообщает
▁всём
▁Леони
▁крайне
▁пр
▁185
▁шар
▁Дале
вшимся
▁мною
мит
▁подзем
▁царя
▁продви
oman
▁пуль
▁прото
▁Фор
▁чудови
▁останется
иться
▁мл
др
▁обез
дете
▁темноте
▁дядя
▁Спи
МО
▁оты
▁войск
лимпий
▁проси
▁воздуха
▁едино
сное
▁последу
▁последней
▁Мини
тальян
▁встала
▁имею
вшему
▁содержи
▁готова
▁почувствовала
▁включая
▁понимает
▁Глаза
▁белые
ванные
▁оча
▁уез
▁тен
гран
▁испуга
ans
▁полицей
▁Сама
атр
▁вторых
▁Некоторые
тание
▁существования
пада
▁любого
нном
▁двена
ждали
ЛЕК
▁сравни
▁проходит
ссов
▁сюжет
▁уходит
▁Красно
▁отоз
альности
▁очевидно
▁смогли
▁Завтра
СР
▁партий
▁середине
рэ
▁неф
вах
▁отношений
▁настроение
▁неприятно
емое
▁Академи
▁приду
▁Главное
▁Бал
▁науки
▁приклю
▁лен
▁Союза
▁спаль
▁употре
ъек
▁34
▁деятельность
няет
рилась
фона
▁разоча
ваете
▁диви
▁ух
ционных
▁беспокой
▁произнёс
▁взяли
▁спорт
▁Рей
▁выстав
шался
▁огра
▁размер
▁Владими
▁хала
влечь
▁школа
▁уточ
▁называют
▁сумас
льных
▁ДО
лив
▁мальчика
кле
воло
▁примеру
▁Народ
хваты
▁твое
▁гвар
▁преде
▁вож
жина
▁вход
▁получится
▁обру
▁воспринима
▁СП
▁Слушай
▁терро
▁кровью
▁вошел
▁напра
жном
▁немало
UD
▁уголов
воро
▁свали
начально
▁поход
▁фильма
▁разгляды
▁любовью
▁умо
▁Филип
▁передо
▁Валенти
▁начинается
жом
▁Мэ
зился
▁имена
▁хро
▁new
тивный
▁подарок
▁My
сой
▁Богом
▁ничем
▁лежала
ствий
тябре
стаи
▁любом
▁театра
▁Пря
▁Андрея
▁Фу
▁проговорил
▁средств
▁яй
▁Рудоль
▁института
▁больших
ческому
▁проще
▁верю
▁разы
▁операции
сев
▁02
щика
▁гг
▁побли
▁Казалось
бам
служи
▁заранее
▁Жа
▁финансо
▁сан
щики
▁торгов
зно
бности
жности
▁напол
▁катастро
▁Пожалуй
▁крикнул
пая
▁пости
лого
▁проме
▁уха
▁дожд
▁повезло
▁бутылку
▁ООН
▁прикос
▁большого
▁таре
▁экипа
▁усе
▁образование
▁одо
▁зависит
▁отказа
мия
▁товарищ
▁короля
▁предложение
▁миллионов
тировал
рана
▁мобиль
▁службу
▁распростра
▁неприят
▁Наталь
▁плы
▁гостей
ционного
няли
лила
ходы
▁предполага
▁оружия
▁Наташа
рб
▁Хозя
манов
▁поясни
▁результат
вились
▁стоят
▁революции
▁значения
▁собирался
▁готовы
▁стену
▁проща
▁вашего
▁праздник
лят
даго
▁окном
▁Lib
мыми
борато
▁объедин
▁as
▁крик
ченной
▁площадь
▁анало
▁выжи
▁описы
▁пах
▁думает
▁идеи
▁Книга
вности
ралле
▁превос
▁помог
▁обой
▁немно
▁дипло
▁Президен
▁недалеко
▁Более
ственными
▁ход
ине
▁храни
▁рассказывать
▁Генри
▁каждому
бург
▁числа
▁выпуск
▁отвра
▁ситуацию
▁Патри
СКА
▁встречу
▁потен
вающие
чее
мотал
▁окончания
▁выро
йду
вказ
▁склады
альность
▁живых
▁черт
▁незаметно
▁отправ
▁сексу
сот
брасы
▁перспе
▁летом
▁it
▁похож
▁век
▁ходил
▁подходит
пти
▁будущего
▁поверхности
▁Дима
▁ков
рного
щена
▁повед
▁посу
▁Ман
▁перео
▁представляет
▁Никогда
▁бывший
▁перевод
▁воскликнул
▁недоум
риться
▁сож
▁спец
▁фин
▁Уни
▁вариант
▁полка
▁разма
▁отцом
▁акт
▁придума
ive
▁Эд
▁спине
▁волос
▁множе
▁ваша
▁чувствовала
▁мягко
▁страну
▁металли
▁Роман
▁ждала
▁разбу
ереть
▁главного
▁заметно
▁03
▁расстре
▁поту
▁энергети
▁la
▁исследования
▁вовремя
ым
▁вошла
бит
▁кусо
▁Марк
▁характери
▁1996
▁това
ВАН
▁исключительно
▁дам
сып
вность
▁поэт
▁Коман
женного
стика
▁глава
писко
▁отсутствие
▁невиди
СЛ
▁Буду
▁провести
▁лиц
▁создать
ковым
▁Побе
▁удал
▁технологи
▁привя
▁открыть
мену
▁блестя
▁новым
▁Рим
реи
▁XIX
▁вздохнула
▁Елена
▁началась
ft
▁Централь
▁ГО
▁сомнения
лаз
▁38
▁Национ
▁Бри
▁туман
▁песня
ёс
тится
нета
▁подошёл
▁иници
▁качества
▁фаши
▁вошли
▁ветра
▁прочь
▁Папа
▁завод
▁врач
▁границы
▁носом
крик
▁старался
▁шёл
▁поти
▁делали
мила
▁кап
▁Бли
▁вампи
▁сельского
мили
rary
▁пробе
▁условия
▁выбро
▁пога
▁северо
▁общего
▁создания
тива
пела
▁зарпла
▁пообе
говорила
▁Ирина
▁держать
▁Сред
▁Дома
моро
▁вздро
▁реальности
▁Согласно
вода
хая
щенно
рово
▁2030
▁огляды
▁Автор
▁0pt
▁рамках
РОД
▁будущем
▁Давайте
▁директора
▁веще
▁обоих
▁светом
▁вернуть
класс
▁улыбаясь
||
▁уве
▁расста
▁наря
▁запад
▁бег
▁Помо
ливый
▁очереди
▁цы
▁литературы
▁развитие
тельств
тном
▁приподня
▁смех
▁сх
▁Times
▁поняли
див
▁Помни
▁голов
▁Вен
▁дерева
▁Такой
▁вторая
▁назначен
▁Продол
жаю
▁Обе
▁состояния
▁84
▁поможет
▁аппара
киды
нете
▁поселения
▁король
▁Следу
▁автома
галась
▁Итали
женная
▁звезды
▁играл
▁шер
шные
▁совета
▁мудро
▁округа
▁якобы
▁Иоан
чайно
▁дала
▁разор
▁подходя
▁хозяина
▁любят
▁прохо
▁нетер
▁Смер
▁1944
▁полном
97
роваться
▁кресло
▁началось
▁or
▁запро
▁действу
▁сказо
▁поси
▁Япо
спек
▁КА
▁напомни
▁Татьяна
▁Стар
▁сно
рики
стана
ленными
▁принялся
щалась
▁заре
▁удер
▁др
▁подробно
ern
▁рыба
хим
▁фоне
▁атмо
▁благополу
▁находятся
▁народу
▁/o
ились
▁увидели
▁вете
▁миром
▁сказано
▁успокаи
▁неп
ich
▁подальше
▁муници
▁1993
▁Гене
▁отвечает
▁серьезно
▁Город
▁одежды
▁Федерации
▁простой
out
▁кно
▁Капи
▁графи
▁Похоже
▁продолжала
▁позиции
▁ОТ
▁царь
▁Вместе
▁огня
▁кивнула
▁Дай
▁Почти
▁Дом
▁Коля
▁появляется
▁Library
▁государство
цент
▁столу
хватив
▁бед
▁красиво
▁изменения
▁Россию
пании
▁принято
▁Надеюсь
мотреть
▁загадо
просил
▁ТО
▁губерна
▁семью
летия
▁вар
▁Оде
▁городу
▁стакан
▁звали
▁берега
сфаль
▁Таня
жкой
▁МА
▁учре
бый
ЕЖ
вайся
▁изменить
▁воли
▁напад
ЕВ
▁составляет
гай
▁пространства
▁друже
▁внизу
▁стоять
▁прихо
▁Марти
рованный
шите
нутся
▁раско
чиком
▁каждую
сных
мене
грать
рье
▁начин
▁разговора
▁хри
▁военных
▁связы
▁жители
▁меро
▁распла
▁захотелось
стам
▁Зу
▁облада
вето
▁молодого
лкой
▁маленькой
новение
▁итальян
▁газеты
части
▁высокий
нулось
▁Пан
▁свободу
▁Рай
▁детьми
алан
хие
▁граф
▁голосе
пит
няется
▁Слава
▁музыку
▁подчер
▁публика
▁Утром
▁президента
▁болезни
▁засе
▁Основ
▁Ch
АТЕЛЬ
▁шля
▁Настя
▁принимать
▁автомобиль
▁воле
ква
стыми
рованных
хами
ЛЯ
▁лист
▁валя
▁жан
стики
▁погла
гались
▁юго
ссию
ланд
▁силах
ёте
▁империи
щений
▁лекар
▁обществе
▁картину
▁преимуще
▁понимала
круг
▁вынужден
щают
▁Мужчина
▁слышала
▁полчаса
ЛЕН
▁кусок
ЛОГ
▁квадра
откры
▁пило
▁коридор
▁Моро
▁заинтересо
▁черно
▁настоящему
▁заболе
▁спал
▁заблу
ies
IN
▁отчет
▁ворота
жность
▁устал
▁недоволь
▁Витали
▁маленькие
рги
▁Евгений
вие
▁такси
▁довери
▁пиро
валь
▁Але
▁законо
пами
▁слове
дности
▁нехо
▁приказал
зен
▁скре
фом
▁Ибо
тельница
▁Отече
яз
тками
▁старше
ковы
▁кош
▁артилле
▁Говоря
▁друзьями
рованы
гнать
▁сухо
▁Точно
▁корабля
кость
▁Свер
летели
▁поте
▁чис
▁дивизии
фей
ума
нтов
ванных
▁правительства
▁Ат
нских
дря
▁невольно
▁втором
дора
▁привык
▁разгля
ph
▁вещь
▁кора
дилась
▁несу
▁экза
▁подруга
▁Скорее
мере
▁закрыл
▁41
лика
▁Эх
▁данный
▁опе
▁2002
▁решительно
делся
▁ПОД
ard
▁Джу
▁сбо
ant
▁необходимости
▁дар
хли
▁всеоб
дры
▁вре
▁благород
зок
лах
▁соревно
▁плане
▁избира
▁Ир
▁страна
▁еду
▁потенци
▁сборной
▁старого
▁улыбка
▁дерево
СЯ
▁отклю
▁выражение
риа
▁боялся
▁Кристи
▁природ
end
▁адре
вока
▁старин
▁находились
км
▁ровно
▁стоило
▁хорошего
шают
▁утрен
▁членов
▁значительно
▁Хра
меялась
▁Республики
свя
▁аресто
▁песен
▁пытались
▁искренне
▁Тан
▁звонок
▁князь
▁природе
рные
▁успели
▁Лей
▁КОМ
ult
▁2003
▁встретил
▁схватил
▁мозг
▁ногах
▁услышала
ace
▁безза
▁неплохо
жья
▁завое
▁Шо
▁фотографии
гаться
▁уша
чины
▁удовлетвор
▁рит
▁удосто
▁диван
▁упала
▁42
жился
▁позволяет
▁поинтересовался
▁выру
начале
▁столо
гни
▁написать
▁танце
▁Roman
40
▁оставив
▁расти
▁грустно
вающих
▁титу
▁область
ционный
OL
▁поправи
шедший
▁именем
▁ушли
▁неизбе
зне
▁знакомый
▁перене
▁хими
гнув
▁срочно
зает
▁эпизо
жник
ленность
▁иско
▁упра
▁соедин
▁протяжении
▁Еги
кинул
▁прист
пети
▁педаго
ждают
▁Наш
▁чт
▁Ус
▁карман
шается
▁покупа
▁веж
▁некогда
ьет
▁шпи
▁случаях
ide
▁происходило
▁Вече
хам
▁сад
кина
▁всяких
▁здорово
дились
▁Родился
ждением
▁наверно
▁сельсо
жье
▁взгляда
ext
▁ребят
зий
▁напоми
▁имела
▁лейтенант
▁отношению
рят
▁лиф
▁роста
▁Аня
▁посреди
▁топ
кратно
▁теории
▁500
▁каждое
▁жалко
кза
▁Кам
▁старой
▁узнала
▁спектак
▁эволю
▁асфаль
▁Киев
▁ждали
▁выделя
▁лаборато
▁Николая
лилась
▁ЕВ
▁Кли
▁придет
▁ухмы
▁потребо
▁прило
▁Йор
дови
▁свидете
▁занимался
▁бытия
▁борьбы
▁Лен
гор
▁Лари
▁слышно
▁языком
▁примен
ждой
▁Долго
▁желе
дце
▁Фё
▁обору
▁Ивана
ob
▁нашему
▁Кос
нодоро
▁нача
▁тень
▁масшта
▁ресур
чья
▁став
ньку
▁данные
пей
честву
СТЬ
▁этаж
▁должности
дито
▁дья
▁обита
▁прими
твори
точки
▁Право
▁обыкнов
ющему
▁хлеба
▁врага
▁учиться
▁истре
▁веке
▁придётся
▁безум
▁симпати
▁доли
▁наг
▁заты
▁интелли
▁кладбище
▁Ам
▁Арка
▁мораль
щаются
▁работала
жок
ёв
▁телевизо
▁соору
▁способен
▁возьми
▁Дере
жек
▁удовольствие
циони
▁Такое
▁посред
жди
стили
▁Пом
▁белой
▁отчего
▁кризи
▁обло
надца
▁цветов
▁очер
▁висе
▁постанов
цкого
▁вслух
зию
▁журнал
▁общей
▁позади
▁снял
▁Ск
▁напу
▁сильный
▁ИН
▁реке
▁полковник
вано
▁рассчиты
▁ассо
▁фар
▁провали
▁выдох
▁йо
▁красивая
▁сдержи
▁роско
▁назвал
▁поэта
▁спро
шный
▁сотрудни
вее
▁зеркало
▁молоде
▁журн
▁прон
▁Бере
▁отдать
▁паци
▁закончил
циа
▁прошлое
▁мысленно
▁здоровье
жней
▁Бабу
▁осла
▁девушке
▁надеюсь
▁Тя
▁бара
лени
▁держал
▁подра
▁скон
▁входит
бет
стров
▁як
▁джин
еремо
▁Сергея
▁забро
шишь
▁ch
▁принципе
▁считают
▁кирпи
▁систему
▁рекомен
▁встрече
▁ситуация
тябрь
нду
▁драго
▁тури
▁плат
▁собственного
▁ходили
▁Сту
▁КНИГ
▁воспользо
▁баталь
ER
▁1994
▁Какое
▁членом
сятся
▁Australian
новой
▁Стре
ell
▁Соб
ЗЫ
зву
▁телу
вере
▁подобно
▁Посмотри
▁вле
▁неот
▁существование
няться
рета
щиеся
▁Чув
▁умень
▁планы
ge
ФА
▁Бого
▁грубо
бке
▁поставить
▁смотрю
▁проч
толи
мм
▁нере
▁ген
▁различные
курен
▁тщательно
▁старые
▁Женя
фан
▁офицер
▁замы
мость
▁распах
▁z
тивного
▁месту
лго
▁Ван
▁забыла
▁стер
▁задумы
▁действие
▁яго
▁Медве
юр
▁шагов
нях
▁Вя
▁Такие
▁Буд
▁храм
▁поисках
▁Веро
▁скорость
▁оч
▁III
▁ощущения
▁применя
▁отлично
▁шанс
тивных
▁топо
▁300
филь
▁бесполез
▁Пау
▁регуляр
ерно
▁упря
щами
▁кали
▁человеческой
▁1943
▁птицы
▁Выс
▁настой
▁Институ
доволь
▁Встре
вина
▁пей
▁колон
▁Arm
▁телефону
▁form
▁поступил
мами
хин
▁брон
▁увле
▁Рудольф
СТВА
дие
тивной
▁привлека
▁впи
▁привести
▁связ
▁паралле
46
▁картина
▁требует
▁герцо
▁состави
▁называли
▁высказы
▁соблю
▁журнала
чна
рена
▁НУ
дование
▁братья
▁Кирилл
дется
▁убил
мс
▁входа
▁восстанов
уголь
▁разумеется
▁здра
▁заро
▁глубине
чились
йдёт
▁Парень
▁Константин
▁статьи
▁парни
▁ладонь
пускать
▁озера
▁соответствии
▁Алиса
тической
▁гимна
маны
▁Совсем
▁судя
▁местных
▁экспер
▁концу
ченным
▁подда
▁надпись
мара
▁относится
▁неправи
вла
▁острова
▁ой
▁Ad
▁пятнадцать
дру
▁робо
▁дово
▁большей
▁выслу
довали
▁подобных
▁просил
мец
сий
▁Сви
▁остров
вляет
▁Пора
▁отцу
стик
ИКА
▁проснулся
▁замени
▁перевер
▁Австралии
▁Лев
▁человеческого
▁окончил
▁Вон
чаются
▁выдви
▁Причем
▁консер
rom
▁06
сала
▁Нуреев
зья
▁реальность
▁прочим
▁an
▁ударил
▁лик
▁попытки
▁насме
▁оса
▁уси
▁медаль
▁1917
▁раб
▁четырех
▁неле
рованные
▁видя
шенные
▁se
▁Вселенной
▁гита
▁пистолет
▁дают
▁молчали
дём
▁советский
▁экспеди
▁Нач
▁борьбе
▁правой
словно
▁ваших
▁впоследствии
▁выклю
бле
▁Петербурга
▁взглянул
▁стул
тность
ci
▁зеле
▁какими
довой
ненный
ора
▁молодые
▁двадцати
▁ключ
РОП
ич
▁порядка
▁Сне
ковского
▁1995
▁называ
▁супер
▁детям
▁всякого
▁передать
ждены
▁блу
▁Дальше
▁колду
▁Спе
▁ордена
▁высокой
▁Костя
чеством
▁подели
▁хватило
лились
щенный
hen
▁остальное
кен
▁пли
▁бре
▁Европе
▁мамы
▁поне
▁тропи
▁музыкан
▁кисло
▁железнодоро
▁Учи
▁побо
▁Эл
▁writ
змом
▁сыном
▁спрашивает
▁служил
▁грузо
▁задержа
▁лопа
▁вспомнила
▁сохран
дав
▁приба
▁Странно
▁длинные
▁остановилась
▁рост
туи
жусь
▁черные
▁юноша
▁СА
▁евреев
▁ледя
▁майор
ой
▁список
вичу
▁системе
▁смело
▁потря
вающей
▁агент
▁забу
носит
пили
▁пье
▁находилась
ыр
▁страте
▁нега
▁Бан
▁крат
ходите
▁компью
вину
▁1942
▁Фин
▁акти
▁успешно
▁контроли
▁by
▁Твор
щено
▁затя
VA
▁беспла
пало
джет
стах
▁песню
▁гаран
▁женщиной
▁точку
▁приняли
▁обернулся
▁наружу
▁услышать
▁искусство
▁Исти
▁девушек
кция
▁обнаружил
▁коз
▁wh
отно
▁отказался
▁лучших
20
▁ХХI
▁путем
▁губами
▁иро
▁погло
▁безраз
▁программы
вится
▁горло
▁умы
дность
▁сосу
▁ство
▁следы
▁глупы
▁Господа
▁купил
▁Нина
ДАТЕЛЬ
▁втор
AN
▁понадоби
▁выглядит
▁предус
▁Йо
▁жале
▁предвари
▁отъ
▁обещал
ване
дераль
▁черный
▁непременно
▁нез
▁пространстве
ствительно
дному
▁проект
▁похи
вшем
▁Тимо
▁рисо
▁начинают
▁счастью
▁Прекра
тр
▁вери
▁переби
▁поверить
▁Ребя
▁паспо
▁Ленинград
▁команда
▁бои
▁подняла
▁Егор
▁суббо
▁Снова
▁НО
ИН
▁планете
шни
мур
▁Иначе
▁поворачи
фер
▁вернулись
ёнок
▁was
женным
▁ико
▁Эм
▁выходу
▁волны
▁вышло
рук
▁передви
▁заи
▁мото
▁Сти
▁Петербурге
▁опер
▁заметить
хий
ющимся
▁руководством
▁скажешь
ропливо
ДН
▁представления
▁цивилизации
терии
▁концер
сным
▁бак
▁Закон
▁следом
скочила
▁занятия
▁Яро
▁Смо
▁пробор
▁Сказ
сюду
▁похожи
▁продолжает
▁печа
▁умерла
▁мясо
гон
мился
фель
▁население
▁отка
▁располаг
▁ждут
▁торопи
▁зим
▁камни
▁визи
жны
дятся
▁Лор
гнали
▁муницип
▁бессмыс
▁задумался
ане
▁кресле
▁уехал
▁огромные
▁волю
▁погу
талки
▁ИЗДАТЕЛЬ
ЕВА
▁губ
▁Небе
ционные
▁вчераш
▁сканд
▁этаже
▁возро
▁паца
▁пру
дования
▁Сме
▁судьбу
▁Ада
▁умереть
▁звезд
▁сведения
▁Иса
ign
▁Нельзя
▁одер
▁называемы
▁развали
▁Фри
▁ожидал
▁уважа
▁догады
▁белых
рована
▁взгляды
▁транспорт
▁изменя
▁кабинета
▁нераз
хах
▁переу
▁Спу
▁шее
▁играет
▁заж
▁обед
▁непонятно
▁данном
idale
▁Armidale
▁работали
▁me
▁Всегда
▁монет
▁Писа
▁Поло
▁Пара
▁Будь
▁полиции
▁мужем
▁Вокруг
▁Петра
▁Небо
▁улуч
▁грома
▁зача
нением
▁Дети
▁защиты
▁Божь
▁уми
▁Поя
ец
▁выпить
ниями
▁ступень
▁бывало
▁молчал
▁Дет
▁колен
▁информация
▁приготов
▁кабинете
ов
сказа
▁давайте
▁бывшего
▁слышать
пели
говор
рив
▁максим
▁Кому
▁масса
▁Ян
▁Здравствуйте
▁чужой
▁удали
ждению
▁Гит
▁55
скал
▁попала
▁кресла
дре
жко
▁181
▁соро
ame
▁законы
ars
рией
▁прозву
вязы
▁левой
▁живёт
пустили
▁коричне
▁университет
▁врагов
фера
чьи
▁нашёл
▁чемо
стол
следование
▁фронта
▁определён
рованной
▁рюкза
ванной
▁делам
▁самолё
▁инсти
▁нигде
▁Цар
▁золотой
▁маму
▁лихо
▁скор
▁уво
▁военной
▁отпуск
▁перестал
▁духо
лга
▁звезда
▁прийти
▁сопер
▁невероят
тались
▁Лин
▁автомати
бла
▁Ира
▁нов
▁основной
▁бессмер
▁приехали
▁палец
▁поворо
лию
▁кармана
таны
▁школь
▁стыдно
бен
ющегося
зости
▁тыс
▁Тра
▁прошептал
кового
ord
▁указ
писала
▁удивленно
▁отзы
ляции
▁сет
зон
▁qu
дже
лера
щению
▁Ленина
▁забе
▁ся
▁спя
▁крово
▁насы
▁надежды
▁бух
обла
▁встать
▁47
▁хорош
▁следующее
▁покра
ЛЬТУ
▁сети
▁сид
ционе
▁лете
▁сбро
▁героя
▁отвечал
▁неодно
стало
скольз
▁you
▁пропо
▁Николаевич
▁1980
▁слез
▁измер
▁предприя
▁забира
▁подгото
▁мисти
▁Оба
▁подраз
▁подним
▁Скажи
▁2018
▁пулем
▁неведо
▁удивительно
блу
▁взрыв
▁городской
меи
▁поменя
▁вело
сова
ровка
чивать
▁попросила
▁ужаса
бан
▁Далее
▁48
ерь
▁крылья
▁лежали
вшееся
ходим
▁Прошло
▁with
▁женщине
▁подобное
▁Люд
▁обвин
▁своя
IC
▁скамей
парат
▁Коло
▁промол
▁слушал
▁спит
▁республи
ize
▁хорошие
▁пожела
▁сестры
▁хвост
▁преле
▁Никита
вающего
▁красоты
тывать
▁субъек
▁Серё
▁раздели
▁погре
дир
▁Анатолий
▁причин
▁Чтоб
▁половину
▁твердо
▁дабы
▁темы
▁миллиар
▁каждая
▁маме
далась
ющейся
рились
▁солн
▁делаешь
per
▁скажем
ЛОГИЯ
ходом
▁жене
▁капли
виков
▁засу
▁39
▁символи
▁приста
▁розы
▁зах
▁опасности
▁ищу
сек
▁МИРО
▁люд
▁постель
▁Понятно
▁Казах
▁виноват
▁общения
▁восстанови
ялась
паться
▁остановить
▁ЕВРОП
▁Хочу
▁влияние
▁группу
жик
оном
▁странах
лень
▁бросился
▁хорошая
▁Сара
▁данных
▁Дверь
▁захвати
▁иска
ченного
▁ушёл
▁тормо
▁конц
▁вал
тав
▁коммента
▁процесса
▁водки
▁полтора
▁силами
▁осле
▁расскажу
▁слава
▁помнишь
▁отряд
▁преступления
▁ван
▁госпи
ГУ
▁сумку
▁стремительно
чному
шив
▁угла
ните
▁правил
▁хищ
▁теми
▁вернее
▁рабочих
▁позднее
▁пропи
▁положения
▁душев
скур
▁капитали
▁домо
▁Яков
▁43
▁всякие
▁даст
▁становилось
▁Коми
▁уходить
▁слёзы
▁художник
рала
▁великий
ордина
тник
▁Руси
▁Была
ровой
▁сцен
▁третьего
▁тетра
▁диск
▁траге
ate
▁имуще
▁98
▁Наши
нными
▁британ
▁Кня
▁действительности
▁оставаться
▁хорошее
▁ногой
ждено
▁показывает
▁пало
▁приоткры
▁апо
▁военного
▁способности
▁183
▁понравилось
СКАЯ
▁сочув
ens
штей
▁действовать
▁князя
▁дур
▁превы
▁провел
ворот
▁аж
▁рада
▁стандар
▁собака
▁дождя
▁командира
▁Свобо
сомо
▁Вместо
▁вытя
▁пан
▁разом
▁терп
▁кури
▁ВИ
▁полное
▁правила
▁называть
▁поднялась
син
▁РОССИИ
▁правительство
▁Сын
▁оказаться
▁появилось
▁Вра
▁разница
▁владе
потом
СЛЕД
▁причины
▁современной
парта
▁пресс
▁теоре
▁веры
▁прох
▁уско
шений
ТУАЛЬ
▁Словно
▁зависимости
▁взро
гивая
▁рассказала
▁Вене
▁правиль
▁Иисус
▁курс
▁отпу
чии
▁адвока
▁быст
▁городов
▁Фонтан
▁позвонил
▁соответственно
▁счёт
▁Отечественной
▁Девочка
▁Созда
▁администрации
монт
▁прошёл
▁словах
▁гли
▁Бил
▁побежал
▁бабушки
▁названия
тех
▁дважды
ялись
точку
тями
ляя
▁нара
▁учился
тности
▁задача
▁that
▁1992
▁остатки
▁уник
▁Рома
▁душой
▁огромной
▁выступа
▁writer
▁ВА
▁завода
шена
▁Ля
▁тащи
▁самих
наве
▁удара
▁известный
▁Сердце
▁вашу
▁опублико
▁ужасно
▁девять
▁черты
РАФ
▁Вроде
▁бассе
▁концеп
▁Оля
▁расстро
града
▁советской
фак
▁гигант
▁sp
▁страда
▁подозри
▁армию
ляю
▁восьми
▁наполня
▁достав
▁астро
▁пятьдесят
▁сопротив
плу
▁отдельно
ровано
▁сочин
бей
▁сцене
▁44
▁Обо
▁вред
ходов
▁обороны
▁парла
бай
▁Денис
▁золото
▁риту
спонд
▁участвовал
аа
▁всяком
▁сержа
▁изя
чивая
чалу
▁чувствовать
▁взаимодей
▁стекло
IS
▁судеб
▁проверить
нилась
кости
▁Люби
зова
▁Слова
▁Говорят
 км
жится
вью
▁Сразу
▁возникает
▁смертью
▁радостью
▁бывают
▁Иоси
ish
▁НИ
▁вдво
▁чрезвы
▁вопроса
рона
▁Раньше
▁набира
▁молодая
▁Действительно
ковый
▁создал
▁сутки
ждаться
ini
▁растя
▁зате
ниях
▁Голос
▁подно
▁удержи
▁видим
стественно
калы
▁ана
▁препят
▁считаю
▁уму
▁техники
▁Un
▁четвёр
▁65
▁Валь
▁чемпионате
ину
▁нарисо
щер
ort
сант
▁способно
▁конферен
тивля
▁процессе
▁Поскольку
▁Ели
▁карты
▁подобного
▁Гал
▁грани
вера
▁огромное
▁Марии
▁щу
▁Импера
▁бессо
▁Христос
▁Империи
поле
гими
▁создание
▁Хочешь
▁протянула
▁арен
чны
▁знакомых
▁разобраться
▁персо
▁пороге
▁средне
▁Мин
▁желая
▁табли
▁перегово
▁Божи
куро
тельностью
▁тема
▁Дя
▁безна
▁работой
▁недолго
▁Вечером
▁выби
ствующих
сило
ick
▁музыки
10
▁Мира
▁телевизор
▁альбо
кнув
▁капитана
▁Константи
▁согласилась
▁Дед
▁снять
танные
дело
▁обор
РОЛОГИЯ
тером
▁свеже
чел
жалось
▁примет
▁герман
sk
▁рак
граф
▁закона
▁Наталья
▁поведение
▁Пошли
▁труп
зав
▁второе
▁думая
▁поток
гается
стся
▁сери
▁вторую
▁принадлежит
▁not
▁Такая
▁богов
▁беспре
▁фер
енях
ПО
▁Куль
блем
▁систем
▁колба
▁располага
▁любимый
нуне
▁конья
ost
▁твоим
▁достиг
НЕ
▁очевид
▁лок
▁лучший
▁Жаль
▁Доктор
меть
пустила
▁Холо
▁двоих
рис
▁имеется
▁сумел
мотр
▁Светлана
щийся
▁пробо
▁аф
▁Окса
▁недель
слава
▁чемпионата
▁лука
▁привлек
▁ПРИ
шало
▁Алла
▁сезона
▁этажа
▁девочку
▁ориенти
▁предме
▁сдви
▁комитета
▁волосами
25
▁size
тни
▁мамой
▁Антих
▁Короче
▁разговаривать
▁нелов
▁захло
▁милиции
▁философии
▁Бур
берг
▁согре
▁архитек
▁храма
▁Пы
▁призн
следу
▁сми
▁режисс
▁группе
▁армия
one
▁Жена
ис
▁1918
▁спуска
▁искал
▁любое
▁Вася
▁Суще
кома
днев
ритет
▁призра
▁стати
▁крест
▁пойдем
▁губернии
▁мозга
▁подобные
▁определить
▁воспита
женное
совой
cm
▁университете
тилось
▁био
стар
▁округ
▁минимум
▁взаим
▁надежда
▁учителя
▁дове
▁мусуль
▁договор
▁очки
▁банди
▁служить
слан
▁возвращаться
▁убеди
▁Были
▁Сон
▁Малы
▁становятся
▁ИНТЕЛ
▁уко
лагода
▁насторо
▁Марга
▁зимой
▁говорите
▁подписа
▁собрались
AL
▁законом
▁изде
▁Нор
▁гео
тивные
▁смешно
▁эфи
▁Геро
летов
ровался
▁виз
▁мужчину
▁обнял
▁помогает
▁Влад
делать
▁Уз
шаться
ous
▁идей
▁встретиться
▁подруги
▁ведет
ore
▁сравнению
▁записа
▁понимаете
▁холодиль
▁стрель
▁коне
▁процентов
▁слышу
▁эго
▁владель
▁Виктора
▁члена
▁Сек
▁дверей
▁надолго
▁180
▁бою
▁двора
▁противостоя
▁главной
▁добрый
▁седь
▁телефона
сель
▁победу
станции
▁чо
▁политики
▁Вчера
▁покоя
▁корпуса
яли
▁сказки
тору
▁глоб
▁Фер
▁пиво
▁0cm
▁дне
ON
▁взры
▁кварт
▁шам
▁традиции
▁Оче
▁река
▁Вика
▁веков
▁проводить
▁убийства
▁смеш
▁син
▁худ
эл
груз
шлись
▁курсе
лёт
▁тоном
алакти
▁начиная
▁желу
▁поближе
▁красивые
▁46
▁больнице
▁Международ
▁изви
▁попробу
вестно
▁птиц
▁МИРОВО
▁оли
tm
▁Простите
▁перспекти
▁Даль
рек
▁любимой
храни
▁председатель
▁гени
▁коротко
▁удивилась
▁идеологи
тировать
▁закричал
меча
▁контроль
▁остав
▁заведу
▁раски
▁шаги
плю
йта
щенные
▁Мальчик
▁БО
▁Эк
▁службе
▁справа
▁позо
▁бюджет
▁политической
▁модель
▁Дем
▁Чёр
▁грех
▁записи
▁наблюдать
▁ВЕКА
▁Первая
ack
десяти
▁1938
▁отметил
▁изло
▁сопротивля
▁сигнал
▁Библи
▁ребёнка
мощ
▁Джор
▁самостоятельно
ализма
водил
совалась
▁видите
▁мечты
▁Зако
▁Окон
▁Кот
мети
▁подло
▁сочета
▁Обще
▁звучит
▁загляды
▁процеду
▁Впер
▁имея
нись
▁согласен
▁независимо
▁бабо
▁обнима
ИЗА
▁красный
▁скольз
▁испан
вель
пора
бко
▁участников
▁бизне
▁нравилось
▁модели
▁разры
▁оборот
▁хмы
▁прису
▁прока
рист
▁сформи
ровку
▁нал
ОГРАФ
ённый
▁Гля
▁окну
ИТ
▁Фло
▁победы
▁провёл
▁романти
▁помогать
▁1940
▁столк
▁миф
▁хитро
▁НАТ
чаться
▁Велико
▁истины
▁рестора
душно
▁собаки
▁ласково
тацию
▁здоровья
▁забот
▁любишь
▁аген
▁Re
▁давал
▁забыли
шевели
▁выта
▁счастлив
ткой
▁указал
▁граду
▁работают
▁Академии
▁делала
▁звё
▁Ваше
сию
▁оригин
▁служа
▁стесня
▁подраздел
▁жидко
планет
▁подряд
▁неподви
▁скорости
▁белом
мел
ЛЕ
▁давать
▁меры
▁мёрт
▁заклина
▁Ребята
чивает
ip
▁Сча
▁деше
▁подняться
▁Вспомни
ляется
▁кругом
▁интересом
▁поехали
▁зата
▁text
▁эмоцион
шенной
▁Хар
дай
▁красивый
▁органов
▁видов
▁отдохнуть
▁спортс
мель
рита
▁рубе
▁жёл
▁мла
orm
▁Каза
▁жду
▁приводит
▁сочи
▁Владимира
▁одежда
▁шагом
▁понятие
▁католи
▁характера
▁ЛЮ
▁излу
▁помещение
▁винов
▁войти
▁бата
▁поды
СТО
▁НУРЕ
мона
▁раска
▁туалет
▁старых
няв
▁ужин
произ
▁костюм
▁пад
▁Пушкин
▁стоимо
▁ходит
▁спаси
▁автобус
▁версии
▁попыталась
тывая
▁ОБ
мерно
рных
нче
▁изли
▁пойдет
ид
▁Быть
▁жо
челове
▁КУЛЬТУ
▁театр
▁Ради
▁наблюдал
шедшего
▁иу
▁htm
▁дебю
▁Неожида
▁личность
▁материала
▁Георгий
▁мани
▁присе
▁религии
живать
▁Великий
▁акку
▁Ган
▁положено
▁пива
шне
▁новом
▁нервно
▁попо
▁представители
▁ИНФ
▁конкурен
▁периоди
▁академии
байд
шкин
▁провод
▁вопросом
вий
льше
▁помол
▁достижения
▁привед
▁племян
▁благода
ченное
ствования
▁ссо
▁крае
▁Сиби
▁звание
▁атмосф
▁милая
ченная
▁интеллекту
▁гибели
▁коня
▁человеке
▁любую
▁училище
▁несча
▁девушкой
▁Володя
▁умеет
▁прошептала
▁природа
▁млн
▁наступи
▁сюр
▁Слово
▁Судь
екти
▁суток
зербайд
▁эми
пила
▁прибо
▁стекля
▁мыслями
▁хре
▁ари
▁1986
▁дальнейшем
▁con
▁теку
▁Лицо
тельстве
хозя
▁господа
▁НАСЛЕД
ённых
▁серде
▁связано
▁секунды
▁МЕЖ
▁классе
▁всякой
▁братьев
▁Прос
▁изнутри
ранже
▁1939
▁Испо
▁основания
▁обрадо
▁сможешь
▁матерью
▁больницу
▁дурак
▁непосредственно
▁махнул
▁старика
БК
▁заставил
даться
▁матче
▁проекта
▁История
▁дост
выр
▁отвечать
▁героев
▁1920
▁четырёх
ССО
▁опыта
▁подошли
▁предпринима
вающая
▁собрать
▁Сли
▁оставался
▁собственных
▁поколения
▁Прямо
▁генераль
▁Прошу
▁данной
ванная
▁СМИ
▁разделя
▁удивление
ory
▁чьи
споко
▁водитель
▁положении
▁земель
▁стака
▁боялась
▁Ого
▁заметили
▁вызывает
▁МЕЖДУ
▁посёл
▁ске
мби
▁ЯЗЫ
▁брови
▁коридоре
▁Бен
▁шло
яр
альному
▁снаря
▁1937
▁направления
рыми
▁даёт
▁тва
сипе
▁Обычно
▁стук
▁генерала
▁кости
▁представителей
▁упомя
▁Кана
▁собирается
евского
▁последнюю
▁кожи
▁заки
▁исправи
ненные
▁сущности
вида
▁стекла
куп
▁малей
пар
жилась
▁хохо
▁прив
зный
▁выходить
▁движением
▁сердцем
▁толпы
▁подле
▁насили
ДОЛЬ
▁ПА
нель
КУ
▁шоу
▁игр
▁Матери
▁странное
▁ряда
дак
▁пустой
евича
▁Позд
▁убира
▁родилась
▁документ
▁пальцев
▁Красной
скали
▁пары
ula
▁пошло
▁великого
ос
▁наверх
▁рыб
▁решить
ночка
▁150
▁исчезла
▁настав
РОВАН
▁вски
▁начался
▁лошади
хала
▁переи
▁Попро
▁бороться
▁такому
▁император
лист
▁ИНТЕЛЛЕК
▁капель
▁1989
ённые
▁мерз
▁черной
▁фигура
▁музей
▁Пришлось
▁берет
▁заря
▁въ
▁нала
▁опти
▁стану
ъясни
▁КОМП
▁уны
▁занял
▁упор
▁пак
▁Иску
▁Сашка
▁побере
ани
▁трам
▁Пушкина
▁территорию
▁инженер
ction
▁вывод
▁окку
▁Сим
▁предприятия
▁боевых
▁решать
носить
▁огне
▁молодё
▁поведения
▁источник
▁трен
сый
▁прочих
ждь
▁слав
▁1960
тило
▁считается
▁хму
веду
▁Спустя
▁аван
▁сохранить
▁высокого
▁дисци
▁старая
▁надел
▁сообще
АКТ
▁РУДОЛЬ
▁Соло
ver
▁ИНТЕЛЛЕКТУАЛЬ
▁общаться
льп
тельством
▁результаты
▁РЕД
▁преподава
▁давали
▁выте
▁механи
▁целую
▁слева
шенных
ОГРАФИЯ
▁вплоть
▁оправды
▁вылез
▁Немного
▁пожале
▁попали
дную
▁доказы
дено
▁потихо
▁странный
гивает
чилось
▁реаги
▁вырази
▁бояться
емым
▁государственной
▁оппози
сомненно
▁зау
▁отк
▁государственного
▁верто
▁Дела
стном
▁поверхность
▁Знаю
▁беда
▁Бре
▁Дани
▁колю
▁оформ
▁Прин
11
▁доктора
▁58
▁мокры
▁Теле
▁укреп
▁пери
▁муже
▁уверена
▁потреб
▁потери
редка
▁интересо
▁выбора
▁смотрят
▁Хе
▁отправились
▁75
▁отношениях
▁находиться
▁открыто
▁покачал
▁Взя
▁дворец
▁зуб
▁диссер
▁Джек
▁незнаком
▁изящ
▁Тоже
▁великолеп
ул
щаю
▁фактически
▁камня
▁страсти
▁ДИС
▁Часть
▁блок
▁потра
▁соблаз
новича
▁полгода
виду
▁дворя
▁скульп
▁убор
▁замка
▁нелег
▁воинов
▁1930
шением
▁траги
▁делаю
OLF
слова
▁посторон
фикации
ЦИЕЙ
▁Сказал
▁RUD
▁научных
▁обоз
▁Университ
▁фразу
▁отва
▁прибе
▁прине
▁огор
дись
▁расту
▁серии
▁советских
▁направление
▁RUDOLF
мил
▁помнил
▁Виль
▁положила
▁отстав
▁влюби
▁кольцо
▁отби
стят
▁помимо
▁обслужи
▁Артур
▁милый
ровав
менно
▁оре
▁большими
▁разговоры
▁думаете
▁РЕДАК
▁раздел
▁выйдет
▁осен
▁еписко
▁тара
▁ман
турой
▁невыноси
▁профессора
▁перепу
▁выступал
▁Сталина
▁способность
шению
ализм
▁ожидая
▁Лит
НАРОД
▁дышать
▁строить
▁осво
▁ЧЛЕН
▁сделаю
▁патро
▁настаи
▁газета
▁диало
▁клиен
▁законода
▁Вин
ровна
▁св
▁49
▁независи
▁получает
▁оставили
▁МЕЖДУНАРОД
▁ня
▁инициати
зацию
▁my
▁ядер
▁обеда
▁небы
▁попробовать
▁сала
▁снего
▁близких
▁br
▁Большой
тиков
▁Этого
▁испа
▁свы
▁универ
▁проходил
▁Запа
▁отделения
▁Наи
▁газо
▁поехал
▁Леонид
▁поднять
▁ОН
▁фаль
ждена
▁представление
▁табу
▁набра
▁усы
▁пуска
▁вошёл
▁184
▁наби
беру
▁Олимпий
▁фабри
▁Иисуса
▁РОССИЙ
▁штаба
▁кристал
▁устрем
▁Тар
▁СЕРИЯ
▁страдания
▁разума
▁продолжать
сени
▁нечи
▁номе
▁сыну
▁Послу
▁ЯЗЫКЕ
▁пакет
лали
▁сдер
▁лучи
▁опере
▁Мя
▁Англии
▁ФОРМАТ
▁пропаган
▁Чуть
тившись
▁Чар
▁приво
▁Ум
▁дрожа
▁убили
▁Ё
▁зубами
▁скучно
ДНЕЙ
▁тали
▁двигаться
▁АССО
▁озеро
▁деда
▁Наша
ам
▁РУДОЛЬФА
говорить
▁НУРЕЕВА
▁полную
▁БИБЛИОГРАФИЯ
маты
▁тяго
▁чувствует
▁ЦК
довала
▁запер
РОВАННЫЙ
▁солдаты
▁саду
▁МИРОВОМ
▁члены
▁Мака
▁ex
говари
вному
▁ПЕР
▁АКАДЕМИЯ
▁ИНТЕЛЛЕКТУАЛЬНОМ
▁НАСЛЕДИИ
▁нале
ИЗАЦИИ
▁АКАДЕМИКА
▁разбе
▁церемо
▁заговорил
ЕНЬ
▁Хвати
▁De
▁отбро
▁древних
пин
▁съез
ляла
▁ИЗДАТЕЛЬСТВА
▁СИДНЕЙ
▁МЕЖДУНАРОДНАЯ
▁АССОЦИИ
▁комната
▁думали
▁ФОРМАТА
▁ИНФОРМАТ
▁РЕДАКЦИЕЙ
▁подвод
▁настоящего
▁КОМПАКТ
енную
▁ДИСКЕ
▁ИНФОРМАТИЗАЦИИ
▁КОМПАКТНОМ
▁АССОЦИИРОВАННЫЙ
▁господ
лагал
ber
▁нену
▁возраст
▁Нов
▁убивать
▁свободно
рщи
ne
грала
▁фамилия
фана
стность
▁полк
▁щё
▁Мур
▁секретарь
зировать
▁знаний
▁Зво
▁переход
▁1970
▁склад
кают
▁романа
▁отметить
▁белого
ang
ОВ
▁твёр
▁просты
рях
▁товар
▁1922
▁неувер
▁Позже
▁служи
дались
зра
▁Первое
▁кричал
▁en
▁причём
▁собою
▁корреспонд
▁представлял
▁долг
нётся
▁поэзии
▁Новая
зьми
стать
▁Музы
▁короле
товых
▁Ник
▁He
образи
КИЙ
▁кожу
▁Запо
▁следовало
рим
РЫ
▁прио
▁Ваш
шных
нейших
яла
▁увы
▁почита
▁ожидании
▁баба
▁обязан
чится
▁охраны
▁экспо
▁встретились
▁Самое
▁маленькую
талась
▁местные
▁телевид
▁оружием
▁падает
▁приходил
▁объятия
▁министр
▁der
▁высоты
▁Внезапно
▁изменилось
▁последняя
нив
▁велосипе
▁инвали
▁жертву
▁невер
приз
ментом
▁особого
▁расстояние
▁верил
▁Горь
▁ловко
стера
▁мае
▁преми
пам
▁рев
▁соло
▁объяснил
▁засо
▁und
▁суро
▁вежливо
▁Юра
▁опустил
сную
май
гана
СТИ
▁отки
▁морской
▁привле
▁буль
цена
▁задержи
▁аромат
▁чей
▁карьеру
▁№ 
лое
▁сообщили
▁ракет
▁птица
▁Верховного
▁приехала
▁ближ
▁ББК
▁Две
▁министра
живает
▁городского
доне
▁ручку
▁пота
▁рта
▁чувством
▁ценно
▁новости
▁Кай
▁Ть
▁жё
тными
ind
▁деревню
▁крю
▁погляды
▁цени
▁играли
▁ответственность
▁уничтожить
▁зрели
▁мужики
▁сознании
ими
▁количества
▁бен
▁Ири
▁ЧТО
гур
▁добраться
▁пояс
▁вдо
ствами
▁художника
▁зару
▁Святого
▁маленького
▁эпохи
▁перешёл
▁Воль
▁приняла
▁скоростью
▁справ
▁любили
▁облака
▁Непо
▁институте
▁поцеловал
▁состава
▁команде
▁четко
▁маленьких
▁отло
ровь
▁штаб
тических
▁at
юре
▁принимал
▁52
▁Стро
▁выдели
▁запол
▁спорта
▁закрыла
▁дорогая
лица
▁гара
▁Гон
les
казалось
▁овла
▁офицеров
▁РОССИЙСКАЯ
▁единственным
▁подми
▁пункт
▁недав
резал
добно
▁Помню
▁инф
▁Р97
▁песок
▁пил
▁премь
▁предше
▁Сергеевич
▁инстинк
▁импе
▁биологи
близи
▁руководство
▁слом
▁сообщение
▁пригласил
▁городом
ениями
▁откро
теле
▁Италии
▁сотрудников
▁понимание
▁Валентина
▁прямой
▁грана
▁военный
▁Ще
▁участия
евский
мора
▁концерт
ённо
▁вытащил
▁подчин
▁деревен
лондин
▁снега
▁судоро
▁Литера
стает
▁полная
▁вечеру
▁Быстро
▁пейза
▁найден
▁холодной
▁Всю
▁боевой
▁хиру
▁Первым
гере
▁шоссе
▁некуда
шедших
▁последним
гина
ork
няк
▁реф
пеливо
▁ЭТО
возмо
▁крики
чую
▁повторил
▁писателя
▁молчание
ври
вилось
▁Пойдем
шная
стром
▁расто
▁предложила
▁Увидев
ott
▁ВЫ
▁Тю
хова
▁острове
зино
ниться
▁младен
жились
▁купе
▁Мен
тании
▁пальто
ронт
▁поезда
▁похожа
▁бронзо
нышко
▁доноси
▁сумму
▁послышался
▁тихонько
▁видимому
▁ада
▁частей
ДР
▁комиссии
▁нагло
▁получалось
ваку
▁статье
▁Люба
▁оттого
▁сокрови
▁чувствуя
▁расстоянии
▁настоящая
шился
▁Слы
стия
▁удастся
▁строительство
▁контак
▁сигарету
▁бегу
ляют
▁обши
читала
пускает
▁Вопрос
▁костра
▁выле
▁сцены
нская
▁объявил
▁пузы
▁бесси
▁осматри
▁прекрасный
▁пыли
кторов
▁ресторан
▁оранже
▁бараба
енькие
▁происше
▁Лан
▁выглядел
▁повод
▁помещения
▁созд
ныч
▁военные
▁завет
▁пили
сился
жую
стое
▁разло
▁разнообраз
ствовало
▁ночной
▁притя
числи
▁эмоций
▁крупных
▁богу
льки
▁запись
ська
зал
▁отодви
▁Дух
писали
▁платить
▁участок
уме
▁взяв
стила
▁бросила
▁моменты
▁давая
▁причиной
зды
▁голубо
▁бутылки
▁хозяйства
▁заседа
▁64
вейца
▁занаве
▁Будет
▁воскликнула
▁ранены
▁человечество
▁строительства
▁удивлением
ain
▁главы
▁либе
▁РС
▁…
▁Софи
▁предложения
▁фантасти
вара
▁вырос
почки
▁крестья
▁задачи
▁поже
▁Неожиданно
inistr
дало
▁Краси
▁Великобри
▁трой
▁моём
▁зверь
▁кругу
▁продав
▁заду
▁сход
ждо
ong
чкам
▁проез
вист
▁начинал
▁буквы
▁Ура
▁отказаться
ставив
▁аргу
▁регион
▁явления
▁Черт
▁улыбается
нюдь
▁еды
▁уезда
▁потеряла
▁Соци
▁разноцвет
▁опасность
▁проводил
▁Хватит
вило
▁Павлов
▁банк
▁записы
▁сели
▁97
▁динами
▁Шар
▁материал
стную
▁сайте
▁боится
бже
▁хруст
онер
▁творчества
▁жертвы
▁половина
▁Ды
▁слю
чание
▁способом
▁Худо
▁уй
▁распу
▁удовольствия
щенных
▁людях
▁газет
▁пожало
шедшие
▁кой
▁парк
▁являлся
▁ГУ
жись
▁мяса
▁Взгля
▁потолок
кцию
▁подал
▁корабли
жками
тину
▁демонстра
▁повернулась
▁поклон
ктору
▁эм
▁половине
▁голосо
▁волна
▁рту
ванного
▁56
▁видят
▁бежал
▁дано
▁потихоньку
▁общий
▁вера
плет
▁покинуть
енькой
▁Бай
▁Впервые
▁рассмеялся
тического
ранда
вершенно
▁Кэ
▁выве
▁Степан
сны
▁1961
ционно
▁тысяче
▁интервью
▁Хан
▁хозяйка
▁предстоит
▁нахму
▁узнали
▁Профе
▁альбом
▁старшего
▁вдохнов
▁Давно
ministr
▁вспоминать
зут
немся
сать
▁рассвет
важно
▁рассказывала
▁приговор
▁поче
▁звери
▁бюро
▁литературе
▁прислуши
нена
▁избавиться
ff
торе
рас
▁признать
▁стенах
▁категории
▁самолет
▁испуганно
▁доса
▁равнове
▁лжи
▁Брю
нав
▁ищет
казывается
▁канал
енному
▁юриди
▁Кого
ВЕ
▁важное
▁Fr
▁реку
▁уку
▁экскур
▁Впере
россий
▁половины
тька
хав
▁Th
▁эмоции
▁обосно
кови
all
▁способны
▁резер
▁насчет
казу
▁Генна
▁au
▁Пя
▁весен
▁российский
берт
▁обратил
мели
▁населён
▁мони
▁Ваня
▁представитель
▁отозвался
ite
▁лошадь
▁вирту
▁Голова
▁formula
▁выяснилось
▁открылась
▁спала
▁заставить
шний
▁Ер
▁теме
▁51
▁проход
▁убийство
▁года —
ministration
▁весё
▁совести
▁Последний
▁нею
▁повре
▁спер
▁Капитан
▁АВСТР
хозяй
чники
▁евро
▁Иу
▁Древ
▁уходя
▁официально
▁принц
▁сжи
▁сельсовета
▁аналоги
▁шку
▁Украине
ose
▁кричит
ung
▁from
бек
▁брыз
▁просит
▁национальной
▁доброволь
ment
▁придумал
▁Бес
▁плотно
▁fare
▁ремон
▁диване
▁научно
пания
▁Administration
ведли
дость
▁подсозна
▁1965
сажи
ляться
▁нежели
▁необыкнов
юн
▁содержание
▁лучшие
▁понимают
▁игре
▁травы
▁существуют
▁Судя
▁враг
▁братом
нели
▁подъезда
▁столик
хватила
▁занимается
▁Извините
тела
▁знакомые
▁179
▁прика
▁шлю
▁местного
чивый
▁достала
▁Валерий
▁драко
▁длинный
▁считали
▁сидят
▁Дви
▁тридцати
ковник
▁фильме
▁слезами
преки
▁кля
uc
▁ай
▁Вален
▁коммер
▁железной
▁Лав
веди
▁Союз
▁просыпа
▁иное
▁Антихристиан
▁Артем
▁компанию
▁высоких
▁разбой
▁нави
▁глазам
▁демонстри
▁свобода
▁сержант
сье
▁Настоя
▁товарища
▁фунда
▁продолжая
рени
▁вел
▁полного
▁терпеть
дые
▁немцы
емую
▁Большо
▁подоби
▁болезнь
▁щел
LD
▁Азии
▁просвет
▁no
зиа
▁присел
▁Министер
▁любимого
рованного
▁Шта
стие
▁напоминает
деться
▁fareast
▁покинул
чут
▁затра
вим
▁зон
▁ког
севдо
дило
▁турец
▁станут
▁странным
жеб
▁Архи
ковая
▁лед
▁номера
▁тип
чье
ванге
▁попад
▁красные
▁лагерь
▁прор
▁усло
▁возо
гы
пуль
▁Землю
▁ошибки
▁перели
▁сцену
менов
▁человеческих
▁траву
▁квартира
▁мост
▁вскочил
▁понимания
▁засмеялся
▁толку
▁избежать
▁шокола
ВС
▁интересов
▁бред
▁плюс
▁ключи
маном
▁доказать
pp
▁своеобраз
▁рассказа
циям
▁Поми
▁полотен
▁ГЛА
▁схва
▁ходят
▁тира
▁остаётся
ницах
▁кучу
▁лап
▁бага
▁мистер
▁энергию
▁сном
шаю
▁происхождения
▁выры
▁неужели
▁проходили
▁заодно
▁Рита
▁Ветер
лью
▁заместитель
▁остановились
был
▁твоему
▁полным
▁Михайлов
▁Работа
▁шкаф
▁далё
▁Коль
▁днём
▁праздни
▁сани
▁сделает
idi
▁предпоч
▁листь
▁араб
▁требования
мбо
▁Кей
▁we
▁бь
▁ТА
тические
▁вначале
▁комфор
чени
▁улыбался
▁мужской
▁Дина
некдо
▁ящик
▁Егип
▁наки
мули
▁1950
▁Нев
товый
няют
▁держит
▁ждёт
▁плакать
▁домом
ненных
▁мете
▁общи
▁судьбе
▁пешком
▁Разумеется
▁Старик
▁одних
▁нево
▁знание
▁банки
▁исключением
щенной
▁зары
▁Al
▁потерять
▁Лег
▁гран
▁Дю
▁плечу
▁зама
▁тупо
▁высокие
▁испорти
▁театраль
▁гнев
▁выбе
шалась
▁выбрал
▁спеша
влял
▁террори
▁WOR
▁Московской
▁смогут
▁набро
▁целу
▁Юля
io
▁выдержал
▁палу
уре
▁Михаила
▁изначально
▁любе
▁передал
▁Сева
▁орде
▁схо
▁мелкие
▁принимает
▁экране
▁отцов
зай
ётр
оле
▁могуще
зира
ЕНИЕ
рением
чину
▁особенности
▁основании
▁заявление
▁новому
▁риск
вляется
▁стади
▁стри
▁дочер
▁Церкви
▁Син
▁Луи
▁пома
мета
▁WORLD
▁сры
▁явление
▁портрет
▁Советского
ьер
▁Париж
▁добавила
▁обязанности
▁конвер
▁прочие
▁наду
▁премии
▁зашел
▁Чет
▁Wh
▁изготов
▁сделано
▁заняться
спокой
▁пристально
▁Крем
▁врача
детель
▁разглядеть
стными
ерусали
▁стиле
▁известных
▁Вяче
ида
▁остановиться
▁молодости
▁предъя
▁защиту
▁вызвал
нося
▁отделение
▁Великого
▁деятель
▁чемпион
▁приви
▁Брат
▁вела
▁182
▁объект
▁политических
▁коленях
почка
емом
▁Карл
▁моими
▁блин
блей
▁аэро
нора
▁або
▁толпа
▁сны
▁урод
▁билет
▁Пётр
▁Григорий
зап
▁траве
▁Молодой
нские
▁заключается
▁менять
танный
▁Улы
▁цеп
▁читатель
пнул
▁Дне
▁какому
▁фести
▁показала
▁Церков
▁собак
лённо
шков
▁Сэм
▁продолжали
▁инду
рочка
▁послал
▁Слишком
▁хруп
▁59
▁орке
▁прибыл
▁отступ
▁летний
▁нехоро
▁туск
▁посмотрим
▁самоубий
▁листья
▁получа
▁возвращается
щейся
▁Уи
▁Оказалось
▁мешает
▁перекре
▁осени
▁Пожалуйста
пке
▁сплет
центри
енец
житься
▁просить
▁Мет
▁плащ
▁КУЛЬТУРОЛОГИЯ
▁Осо
▁сыграл
▁буржу
▁слышали
▁экономики
▁челю
рике
▁дожида
▁тел
мато
▁делах
▁собственные
▁контракт
зму
▁прохла
вершен
▁53
ставили
мотрел
▁кошка
▁документов
▁таб
▁400
▁обрабо
▁Семе
даль
▁борьба
▁рок
▁исследователь
▁огромная
▁XVIII
ve
мова
вики
▁периода
▁КПСС
▁идею
▁IV
▁Московского
▁большом
▁любые
▁степень
▁духом
▁эксплу
ass
▁загоре
ковать
▁родственников
▁двенадцать
▁ща
▁магазина
▁больницы
▁призем
▁Федор
▁удавалось
▁обман
▁тепла
▁бросить
▁собирались
енко
▁дорог
тком
▁саму
▁эффект
▁улица
▁Правильно
▁Надежда
▁1949
▁успех
фин
▁распа
▁рассказывает
▁мнения
▁плавно
▁груз
▁обезья
▁петь
▁пиджа
▁верху
нялись
гаю
▁Могу
▁зарабаты
▁собрался
▁Стив
▁вызвать
▁Наз
▁Всех
▁лбу
▁выу
▁откровенно
▁пуши
▁ладонью
▁сгу
тический
▁пита
▁штаны
▁Первой
▁документа
▁мозги
▁современно
прият
▁Естественно
▁pr
▁поиски
▁конта
▁прибыли
▁твоё
▁Душа
▁аэропо
вавшись
▁Отс
▁появ
▁фигуры
▁дама
пев
▁накануне
▁квали
▁последствия
кивает
дика
▁потряс
▁плакала
ишь
▁актри
ёй
▁чужие
▁погибли
▁высшей
▁изредка
▁Ква
▁писателей
▁получив
▁органы
▁фронт
▁Добро
▁холодный
▁развле
▁терми
лям
▁Стас
▁одеяло
зая
▁кухни
▁узнает
▁изы
▁придум
▁встретить
менова
▁найду
▁Вторая
▁белым
▁корзи
▁проходя
▁организма
▁женился
▁появления
▁Остав
▁57
▁родителям
▁устре
▁прокуро
▁Оказывается
▁недовольно
▁ab
▁идиот
▁неоднократно
▁ремонт
лему
▁Бабушка
гн
▁вло
▁выпа
▁лагере
▁Сами
шайте
▁трибу
льд
▁отнюдь
▁бойся
чишь
▁позволить
▁стя
▁дружно
▁многом
▁присутствие
▁секс
▁внутренних
▁графа
вке
▁выходя
▁отста
▁Лет
▁корпус
▁августе
шится
▁молодым
▁виды
▁авторов
суда
▁порази
гиба
▁гвардей
▁небольшую
▁погля
▁гиб
▁иных
▁огнем
▁внутренней
зю
▁Уа
шным
жников
▁футболь
▁производство
▁считая
▁судить
терна
ционер
▁And
ёра
лар
▁детали
▁расслаби
▁очу
▁пирами
цвета
▁ряды
▁Даша
▁Смерть
▁текста
рядо
▁et
▁Китай
ждала
▁цветами
▁звёзд
▁собирать
праведливо
▁Мартин
▁шутку
▁сыно
▁управление
▁Прежде
щай
клу
гр
▁Дим
▁убь
▁проснулась
▁поставили
менте
▁отдельных
▁некий
▁сесть
▁пробормотал
ровались
▁внутренний
▁Андрее
▁поддержку
▁собираюсь
хими
▁беседу
▁драгоцен
▁интеллиген
▁исследований
▁лучшее
▁коме
▁остановил
▁удобно
▁фана
▁Подума
далось
▁подлин
▁прищу
▁Возвра
▁деньгами
▁одежде
▁началом
ЧА
вешь
▁десятки
▁научной
▁коридору
▁сезоне
▁брез
▁сэр
▁приближа
зли
▁плоти
▁сущность
село
▁существ
▁мужу
▁медсе
рад
дис
рованная
▁продолжение
ВЫ
▁Здравствуй
▁Васильевич
▁54
▁гость
▁PO
▁педагоги
▁Кавказ
▁улыбку
▁архе
вающее
▁взвол
▁подокон
▁белая
▁Твой
▁отличается
▁Крым
▁Эду
▁гулять
▁мэ
женную
▁следующего
▁матро
▁чёт
▁отряда
формы
▁недостаточно
▁прове
▁посовето
▁большинства
▁музея
▁основы
▁ночам
▁шампан
▁примени
▁пропал
▁Соня
▁получать
▁тренер
▁сказав
▁Павла
▁Рича
▁единственное
▁неожиданности
мочка
▁служба
▁чистой
СИ
▁Ваша
радо
▁основных
▁гно
▁ВСЕ
▁парней
▁требуется
▁ово
▁руководитель
▁устанавли
▁российских
рная
▁крепости
▁общежи
▁расхо
▁Игоря
рского
▁красивой
пси
▁флота
▁красота
▁делами
▁рем
▁Около
▁предметы
▁рассматривать
сая
▁мечтал
▁забрать
зерца
менный
▁спины
▁ом
▁живое
▁порабо
▁истреби
▁лидер
▁голод
▁географи
нейший
▁полет
дира
▁нету
▁пользоваться
▁старалась
ваешься
физи
▁Святой
▁Подня
uries
стин
▁ходила
▁Еди
▁псевдо
▁снизу
ною
▁Одним
кнуло
▁миллиона
▁впра
▁Le
▁принесла
▁единого
▁боясь
▁видне
▁иные
▁событие
▁окружающих
▁действует
▁штра
▁Досто
▁повели
▁необходимость
▁Оби
▁впа
▁современного
▁задума
▁лагеря
▁магни
▁соседей
▁жре
▁вали
▁Удиви
▁Администра
▁оборачи
▁засто
▁прице
▁риско
▁пьян
▁чая
▁годами
▁лошадей
▁Умер
стети
▁прокура
▁выполнять
вола
тиви
▁грязь
▁статус
▁озабо
▁кармане
▁тремя
▁Америки
▁данного
▁земной
▁продукты
▁Питер
▁вызо
▁вскрик
▁правления
▁направилась
az
▁совершил
▁начались
защи
▁ущер
▁нашими
▁вцепи
▁Входит
▁уставился
спешно
▁штат
▁энергия
▁показался
▁позвонить
▁придержи
▁усо
▁тёп
▁сним
▁автомат
щах
▁лом
▁интуи
▁студентов
▁организм
▁небу
даю
▁Сдела
▁марте
▁реа
жени
▁Паша
▁завали
▁Авгу
▁немцев
▁многочисленные
▁защит
▁Ивановна
▁Путин
ствую
▁хотим
▁Представля
▁дю
▁анекдо
▁стрел
▁думают
▁побу
▁локо
▁непод
▁государственный
▁Черно
ману
ствуя
▁сентябре
▁мешок
▁раны
грали
▁границу
▁муль
▁мм
▁Яна
▁любимая
тографи
▁столицы
▁создан
▁сильным
▁проведения
▁Париже
▁случая
альник
▁Centuries
▁огромным
ченными
▁ассоциа
▁трене
ire
▁приказа
▁Грей
▁следующие
▁хозяева
▁СТ
▁невысо
▁ответственности
▁Ясно
льский
▁поблагода
▁странные
▁задание
▁карту
▁хорошим
▁Королев
▁покажу
▁пройдет
ньи
▁сообщила
▁сбы
▁слух
▁Врем
▁умею
▁беспомощ
▁целиком
▁Первые
▁БЫ
кора
▁ох
▁Иерусали
▁бить
▁ребёнок
▁добрые
▁предпочита
▁bidi
▁разрешения
▁толком
▁младший
▁пролета
▁кричать
ждаются
приятие
денти
▁шлем
шного
▁рога
возгла
▁Ниж
▁предположить
нялся
▁служеб
▁Друзья
ениях
▁биографи
▁приу
▁перестала
▁небольшая
▁силе
вные
▁технику
▁1919
▁спрашиваю
▁армя
▁обычный
▁золота
▁всад
▁особой
▁предс
▁провела
▁Ель
▁прохлад
▁всерь
▁подойти
▁джи
▁ведом
▁носил
▁прину
▁увлек
▁дедушка
▁выпла
▁Благодаря
водили
▁присоедини
нову
▁фла
больше
▁красной
▁причинам
▁Роберт
▁оду
▁марки
▁ложь
▁среднего
рывно
вающим
руются
▁ангел
делась
▁известен
▁Эдуар
▁мок
▁снаружи
ваи
▁Перво
▁весной
▁гвоз
ational
цина
▁Руки
пнула
▁поверил
товые
▁средневе
кнули
▁личной
▁Боб
ландии
▁танцу
▁барха
везли
▁связаны
▁пояснил
▁императора
▁сезон
▁прой
вите
▁Тон
▁отече
▁устой
▁ботин
▁крупные
▁увидишь
▁экран
нар
▁Музе
▁ведут
▁региона
▁всхли
▁живым
▁чудовищ
▁набере
стит
▁кин
▁побежала
▁терять
▁1954
▁декабре
▁мучи
▁кавале
▁Жела
▁метра
▁портре
▁строя
новна
▁многим
▁воля
▁осоз
▁базе
▁Зву
▁грязи
▁категори
фт
▁серьёзно
ina
▁разря
▁Алексея
▁провинции
нело
▁смир
ust
▁проговорила
▁Гражда
ЧИ
▁совесть
▁ресни
▁1988
▁одиночестве
▁горизонт
▁интернет
▁фирмы
▁социальной
▁санти
▁добиться
▁библиотеки
▁обойти
зной
▁ДА
▁захотел
▁Be
▁батю
▁Кан
лела
▁однокласс
далеку
▁ванной
▁жадно
тация
▁вопроси
зме
▁die
фет
▁поставила
поте
▁пари
72
▁организован
▁соревнования
▁делая
▁просле
▁тайны
вам
чивается
▁Анти
▁современных
▁пределы
▁убо
ial
▁фамилии
▁ава
▁оскорб
▁городах
▁русским
▁дебютировал
▁счё
▁взят
▁Нового
▁продолжила
▁Хру
▁управлять
▁Стани
▁нето
▁стратеги
▁интересы
пустим
▁генети
▁нея
▁уху
ствующие
▁собиралась
▁долгое
▁дочка
▁принялась
АТЬ
▁разными
▁Абду
ьи
▁пошу
▁Тело
▁Рез
▁опи
лене
▁Ночь
▁живого
▁координа
▁Алё
▁шест
▁стихов
▁эваку
▁блондин
▁Адам
▁солнцем
▁местности
▁тупи
▁усилия
me
▁издания
▁Дев
▁духе
щалось
емчу
▁существовать
▁испыта
правду
брав
▁спасения
▁html
чеб
▁клубе
еньки
▁четверо
▁еру
▁испугался
рский
▁мастера
кологи
▁Тех
дс
дым
▁камней
▁низко
▁ошиба
▁Сен
▁оси
▁бассей
стели
▁приле
▁резо
▁УК
СА
▁иностранных
тельны
▁возникла
мину
▁июне
▁улицам
чан
▁получения
▁некоторым
▁Григорь
▁Едва
▁Клю
▁исчезли
довалась
▁пехо
▁Виталий
▁несомненно
▁открывает
▁мату
▁главных
▁прояв
▁отчаянно
▁рыбы
льской
▁иного
▁возвращения
▁нар
▁сынов
льского
гиня
шинство
▁понимали
▁еги
▁выступления
▁предчув
▁отражение
▁провор
▁выпил
▁высоте
▁Тим
▁Яр
шались
▁пытаются
▁умел
▁упре
▁уехать
▁юноше
НОГО
▁ковар
▁принципи
▁вагон
▁федераль
стане
▁государств
▁наск
тельству
▁единственная
▁Японии
▁обладает
▁случится
▁наступа
▁лепе
▁стула
▁Отсюда
▁подроб
▁зов
шля
▁заявила
▁глубины
▁материалы
▁воо
ват
деква
дями
ЛЮ
▁сена
чими
▁туф
▁групп
▁наука
▁надоело
нившись
▁произведений
▁окажется
тному
рие
шках
▁выяснить
▁тамо
▁инспе
▁рос
▁Хол
▁Меч
вица
вшимися
▁Мастер
▁комбина
ъем
щегося
▁черных
ХО
ond
▁вселенной
▁дико
▁крыши
▁принадлежа
▁сообщения
▁внешне
▁гни
▁нетерп
▁Остальные
▁контек
▁принцип
центра
▁подпи
▁планета
▁крыла
▁Дерев
▁ё
▁начальником
▁атаку
▁сынок
▁Свято
▁выстро
ДЕ
▁театре
▁Бру
статочно
▁Огром
▁Америке
▁поре
▁Искус
тельна
▁выска
▁доставля
▁1936
▁заново
▁Пен
▁Изо
▁партия
▁Зай
▁засыпа
▁спирт
ert
▁тесно
мешь
▁святой
▁заводе
▁des
▁кораблей
нешься
▁молодец
▁1966
▁казался
шенная
ждался
▁красавица
▁Rud
▁навы
▁многочисленных
▁приходят
▁лиде
▁возлюб
▁база
▁наличие
▁образе
▁бала
▁каме
▁зап
▁Хай
▁сильные
▁оставляя
▁ожидания
▁третьей
кия
▁устала
▁золоти
▁чрезвычайно
▁газете
▁спрашивал
быми
вольте
▁принести
AT
▁1963
▁великой
рене
▁продолжи
▁рынке
▁промы
▁чужих
НК
▁комсомо
▁мам
▁выдержи
изм
▁бросилась
▁мебель
▁Хор
▁страшного
 м
▁понравился
▁кана
▁замолчал
▁жертв
пкой
▁Тома
▁январе
цкой
йдём
▁цита
ровского
▁отдельные
▁фраг
▁закончилась
дона
лится
▁тишине
▁Произ
▁наполни
▁спали
мам
нологи
тологи
живал
▁кано
ivers
▁петербур
▁избы
▁девчонки
брали
▁друзьям
благо
▁понедель
ливая
вывать
▁интен
сим
▁дерь
▁впечатления
кову
▁Президент
▁премьер
▁оставила
▁Лео
▁припа
nal
интересовалась
▁поздрав
▁укре
жники
▁наказание
▁пони
▁нанес
▁территория
▁подготовки
▁вступил
▁Михайлович
▁1932
▁Вос
▁Харь
▁мент
▁горах
▁становился
зилась
▁рассмотреть
▁Ау
▁покрови
▁милости
чав
▁Оли
▁привело
▁стр
▁дно
▁Хм
ванным
▁бригады
▁Стоит
▁99
▁всевозмо
дном
▁осень
▁осуществи
▁проблему
▁борт
▁следующей
▁желает
шё
▁красоту
▁Внутри
▁Вс
стической
мому
ature
▁сплю
нист
тывает
▁программу
разум
▁кота
▁приобрет
▁настоящей
▁голода
▁надежде
ice
▁мужчиной
▁организ
▁познакомиться
▁Армии
▁основные
ссор
▁карте
▁эксперимент
▁придумать
▁детский
▁лаво
▁изъя
▁1987
▁Эрик
▁родителями
ГБ
▁Духа
▁Рожде
▁преу
▁всплы
▁архите
▁материи
тивное
лёк
▁обманы
▁смя
▁метрах
▁парке
▁Александрович
▁востоке
▁употреб
▁провели
▁дёр
ныне
▁профи
тт
▁Замет
▁реме
▁смеха
▁собственную
▁размеров
▁исход
▁Глеб
▁правом
▁готовить
▁ССР
▁цена
▁повернул
▁шевели
▁лучшим
▁общее
▁красным
▁показалась
▁погода
▁точка
▁Зве
▁решился
менти
стокра
ЕБ
▁ура
▁реакции
▁своло
▁совеща
▁секрет
ИЗ
▁Герман
▁Твоя
▁врачи
▁продолжить
▁надеясь
делы
▁настойчиво
▁нату
▁рынок
зали
▁памятник
▁духовной
▁десяток
▁Мысли
ментами
▁куро
▁прочитал
пии
▁отврати
▁обучения
хивая
▁подбе
▁магазине
▁Тек
▁объяснять
▁Семен
▁Джона
▁сеть
▁откло
▁уклады
шилась
▁справиться
▁вашим
▁превосход
▁осенью
ствование
▁преобразо
▁разга
▁достать
▁помнит
▁Зина
▁эли
менной
▁путешествие
▁делается
вный
▁Силь
▁лягу
▁благослов
▁следующем
▁Осно
▁аккурат
▁регулярно
зел
▁устра
▁Голу
▁кнопку
▁сине
▁слышит
▁плана
▁безразли
▁оттен
▁взрослых
▁собрал
▁Маг
▁заметив
▁армей
▁внезап
▁красного
▁Све
▁рецеп
▁беру
▁пламя
▁сфере
▁ненависть
▁сдержа
▁октябре
зина
новым
шер
▁качество
▁инопланет
▁колхоз
▁министер
▁серебри
▁поез
▁Израиль
ппи
▁МВД
▁массы
▁ставить
▁66
новский
▁христи
▁покрасне
шенька
▁разворачи
▁подрост
ас
▁холода
ць
▁предостав
▁обнаружили
▁Король
▁ур
▁Тара
▁советского
▁больной
▁1947
▁свето
▁корпора
▁свыше
▁67
▁аудито
▁подругу
▁Ог
▁дорогие
чаян
▁взрыва
▁Надя
▁мотоци
▁читала
ach
▁баб
▁1985
▁исходя
▁ne
▁побле
▁фраза
▁тотчас
▁ню
▁каблу
▁носить
мед
нор
▁Ву
▁сорока
▁молоко
▁спорить
▁опаса
▁Пого
▁мусульман
▁враже
▁провозгла
▁войско
▁товарищи
▁подбо
ционная
▁Будем
▁открытия
▁вспоминал
жутся
▁занимал
▁тяж
▁Катери
рхии
порт
тащил
скри
▁американский
▁выбраться
▁Юго
ng
▁настоящим
▁зайти
▁завтрак
▁ужасом
▁натк
▁поско
▁частично
ённого
▁чё
▁присни
▁Товари
▁Цент
▁руга
▁обеих
▁округе
▁кошмар
▁Галина
▁аппарат
НЫЕ
▁разду
▁воспоминаний
▁спасение
НОЙ
▁луна
▁автомобиля
сие
▁занимались
▁подве
▁расположен
▁десятков
▁имело
▁Людмила
чника
едине
▁председателя
▁снаб
коне
рева
▁бежит
▁Зая
жами
▁зав
▁собственный
▁средней
▁перено
▁ржа
▁успеха
▁самолета
▁покон
▁шикар
▁Прой
▁исправ
▁превратился
▁1984
ёры
▁Луна
▁набе
▁укло
пив
▁длинными
▁программе
▁сталки
тари
лай
▁Валентин
вичем
пались
▁рабочий
▁стере
▁называл
еве
▁сестру
▁внутреннего
▁Ори
▁Библиотека
▁ветром
▁сантимет
зиди
▁морщи
▁негром
▁безы
ол
констру
▁запя
▁российской
▁случаев
▁помнить
▁рейти
▁появится
▁1946
види
▁наблюдая
▁отстра
▁учеников
▁хорошей
▁надеждой
▁Лариса
▁сомнений
▁обернулась
▁Эми
▁Апо
▁титул
▁Понимаешь
▁землей
▁просве
▁глубже
▁правы
▁принцесса
▁взглянула
▁подклю
▁Уда
▁Герой
▁социалисти
▁лапы
▁выбрать
▁подка
▁пронзи
▁авторитет
нском
▁женский
▁отправил
ФСР
▁дина
▁образа
тятся
TOR
▁Хозяин
▁свойства
▁неред
ленном
▁местом
▁слову
▁повсюду
▁пребывания
▁Неза
▁учения
▁подпол
▁Or
▁страсть
▁СС
▁побольше
▁вашем
жишь
▁Сар
▁наре
▁велел
▁восток
ваемых
▁Лера
деш
▁дыма
▁совместно
▁просила
▁включил
▁ценности
▁Фелик
▁Полина
шк
▁следовательно
▁Соба
▁прим
▁продолжа
▁col
▁лежать
▁sh
12
▁сотвори
▁невозмо
ненной
браться
▁Неда
▁зашла
▁путём
▁перестали
▁прит
ченную
▁дитя
▁Игра
▁сал
▁1983
▁ехали
▁асси
▁рассте
▁вернусь
▁животное
ённой
▁натя
▁РСФСР
▁природу
СКО
хма
ЕЛО
▁Ильи
▁догадался
▁донес
▁появление
▁рецен
▁ели
▁верит
▁рыбу
▁Маль
▁дамы
▁заставляет
▁пассажиров
день
▁евре
▁Бел
▁отсутствия
шины
▁сможем
пает
▁залез
▁статью
▁прервал
▁занят
▁программ
▁вступ
▁выпуска
▁алма
▁рацион
▁броне
istory
▁упорно
▁Собра
ЕНИЯ
▁подтвердил
понен
▁гл
▁Спокой
▁Тео
▁Член
▁Азербайд
▁Посте
▁болит
▁вечность
▁1979
▁занять
▁1975
▁сумки
нутый
▁отклик
▁настоящие
▁океан
▁вдвоем
▁Неме
▁звука
▁Майкл
▁соединя
▁перейти
▁добавить
che
▁родо
▁Рад
▁позвал
▁законов
▁голосов
йку
▁каранда
▁Деньги
▁мальчишка
▁коры
шность
▁относятся
▁казалась
▁интересное
▁золотые
▁оставались
▁цены
▁Вероятно
▁изображение
▁урок
▁курса
▁привели
▁Витя
▁подпры
▁позицию
▁личного
▁лову
▁Елиза
▁Мала
▁1924
▁символ
льным
▁страшное
▁штука
▁носа
▁русски
▁факты
▁гарни
▁печаль
▁устроить
▁порти
▁давала
▁Трои
▁контакт
▁спуск
▁показывая
▁брал
лететь
▁заглянул
▁девчонка
▁отправилась
кивая
▁целей
гало
▁принесли
▁умол
граде
▁куски
▁столице
ET
▁ощутил
▁прощения
▁Любви
▁Знаете
▁знакомы
чонок
▁мирно
▁Цвет
▁послан
бат
▁состоянию
барди
▁Марго
▁нести
▁1926
вайтесь
СЬ
▁любим
▁гроз
▁Род
▁Царь
▁лету
▁первен
▁приходили
▁оглу
жью
▁посредством
▁орденом
▁занимает
▁Другие
▁крышу
▁воскресенье
▁справля
▁материалов
рафи
▁сделав
▁высу
▁встав
▁Вода
▁маленьким
▁пищи
▁Видишь
▁плоть
▁единственной
▁жестоко
▁среде
▁Видно
теров
▁ответы
▁целях
▁вытер
▁обнов
▁сладо
▁океана
▁ЛЮБ
▁колоколь
▁небре
▁85
менту
▁Кер
▁выса
▁невероятно
▁Шер
▁июле
▁представил
▁велика
▁предков
СТА
▁произведение
▁ежего
▁яз
▁закончилось
НИК
▁умный
▁обрадовался
▁режим
▁брак
▁63
▁прене
▁эстети
▁встретила
▁Спаси
▁Ева
▁группой
▁невин
▁пь
▁перегля
летний
▁гостя
▁функции
▁монастырь
рится
▁долю
телен
ктов
ковую
▁хан
ренные
▁Наверно
▁иденти
▁правед
▁Моисе
▁зре
▁короткий
▁оптими
ГИ
новых
▁РЕ
▁Абсолю
▁Солнца
▁Мая
▁дольше
▁помощник
жества
▁племени
▁Помимо
▁проли
▁детской
▁вопросу
алей
▁Гера
▁картин
каться
▁произошла
▁ник
▁случиться
▁ел
дневно
▁властью
▁плохого
▁звёз
▁выти
▁пограни
▁родных
▁группи
▁мусор
вятся
▁забил
▁перекры
бяза
▁целое
▁осты
▁белосне
▁имеем
▁столкнов
▁обняла
▁возьм
▁летать
▁оскор
▁поддержки
▁страшный
▁рабочего
▁издели
▁республики
ровании
▁Коли
▁Par
▁промежу
▁надежду
▁Анаста
▁услышав
▁монастыря
▁апреле
▁68
честь
▁объединя
▁выборах
▁Аг
дент
▁закончился
▁сердцу
стёр
▁Разд
▁конь
▁познания
▁следствие
▁було
▁меняется
▁ужина
▁неправильно
▁яйца
▁пишут
▁играх
64
▁подарил
▁цветок
далека
против
ваемый
▁промышленности
▁акту
ничать
дованием
▁появляются
▁Демо
▁Олимпийских
▁поехать
▁навести
▁русская
▁малыш
▁посыла
 года
▁уверенность
▁диску
▁черного
▁потеряли
▁1958
▁известного
▁гон
▁Индии
сик
▁суп
ome
▁злой
▁высоком
▁собственное
▁гору
▁вскры
▁понравилась
щенко
чуть
▁серые
▁дисципли
▁новыми
▁созерца
▁сходить
каясь
под
▁болью
▁Кира
▁фразы
▁выходил
▁лаборатории
IE
15
ванно
▁РИ
▁Поля
▁экзем
▁стрелять
▁написала
▁плот
▁заполня
▁Путь
▁причину
▁леди
▁запас
UM
▁мороз
гули
▁|
▁немножко
▁взялся
СО
▁надеяться
▁цари
▁наряд
▁атом
жительно
чиками
▁Петя
▁int
▁фило
▁проститу
уса
▁небольшие
▁глухо
▁объектов
▁среды
▁банка
ющимися
▁расплы
TE
▁Северной
▁периодически
гистри
▁соседи
▁почи
▁предоставля
▁сотрудники
▁усилий
▁назвали
воре
▁огромного
▁Чемпи
▁контроля
▁Лука
плом
▁перечис
строи
▁Другой
▁1953
▁сапоги
▁вашему
▁оболо
▁Кита
▁борода
▁жарко
▁губам
▁бокал
▁папи
▁1977
▁напере
▁методи
▁заса
▁ожидать
▁Арс
ющаяся
▁даром
ьера
нутые
▁тихий
ющееся
▁тянет
▁закрыть
▁вли
▁кай
▁свободное
ЖЕ
▁поспешил
▁читает
▁соответствует
▁поступить
▁огромную
▁мышления
▁правую
▁возвраща
▁ноябре
▁кад
▁собран
▁новость
▁ворон
▁широкой
▁выражения
▁домик
▁журналист
▁местной
▁магии
▁Император
ave
▁местами
▁персон
ливым
▁ужи
▁факультет
▁чести
▁Pr
▁попытка
▁остаются
▁HIS
▁площадке
▁выло
▁непривы
▁задачу
▁духовного
▁интри
▁увлека
▁разъ
ёма
LA
▁двинулся
▁Русь
▁вице
▁супруга
▁Главный
▁закру
▁1905
▁находит
▁госте
жило
▁служит
▁капита
▁Будто
▁Мишка
шенко
▁границ
ствова
TORY
▁аристокра
▁безобра
▁подъез
▁порядо
▁Республи
▁нередко
▁фрук
▁Верх
▁Ангел
▁смеяться
▁звонил
▁Расска
▁неподалеку
▁придёт
▁Вами
▁грамот
▁беседы
ствовав
▁вгляды
▁водку
▁эска
▁вин
валя
▁подробности
▁Женька
▁центром
▁языков
▁благополучно
дана
▁выступил
▁дежур
▁хули
▁Кен
▁HISTORY
▁Сал
▁испытания
▁размышления
▁забыв
▁однозна
порта
стился
▁Часто
▁бывших
▁надеялся
▁вернется
▁1948
▁преры
▁обращая
▁1929
▁родственники
▁возразил
чьей
гся
▁грам
▁медали
▁пали
▁120
▁защищать
▁проявления
▁Американ
нены
ливые
▁зеркала
▁ах
▁Афи
▁структуры
▁смеша
▁предлагает
женными
▁передачи
дька
везти
возз
▁Этим
▁предложить
▁шеф
▁устав
▁Pat
▁Гран
▁Космо
ровке
▁чья
▁ввиду
▁успеть
ровалась
▁Абра
исти
▁черта
▁напар
▁уроки
▁эффектив
▁нынче
▁Обла
▁Бон
▁моментально
▁объяв
▁явился
дна
▁su
▁предстояло
▁построить
зиться
шенного
▁обратиться
нёт
▁отсе
▁оглянулся
▁бойцов
▁трез
▁ы
▁мура
▁становились
стливо
▁глазом
▁носу
▁творчество
▁очередного
▁партию
▁Отца
тивная
▁юности
▁продуктов
▁каю
ванное
▁возможностей
▁Жо
▁Хотелось
▁перехода
чников
▁древней
▁што
▁переклю
▁мелких
▁Война
▁модер
▁состоялся
▁кален
▁феврале
▁Мыс
▁белыми
▁строки
▁закричала
▁стиль
▁цепля
▁178
▁дверях
▁зима
выря
нину
▁Мое
▁стремление
▁обратилась
▁отправиться
▁прила
▁домашних
▁вопросам
▁МУ
▁гибель
▁легла
льда
▁толпе
▁Шве
tor
▁Смир
▁условий
▁im
тимо
▁сыновей
▁ножом
▁нра
▁фамилию
▁Представ
шилось
читали
▁живые
▁ехи
▁газету
▁технологии
▁поморщи
лала
▁комисса
▁посмотрев
эк
▁мероприятия
▁Гло
▁непонима
шенным
▁Большинство
▁комплекс
пав
▁Останови
▁сигарет
▁позвонила
тины
▁насквозь
▁поселение
▁пострада
▁падения
▁зоне
гнала
тается
хнулся
чусь
▁инструмент
▁евреи
докс
сность
▁сопровожда
▁прошлой
▁кусочек
▁передает
▁уехала
▁ВК
▁his
▁большее
▁ А
▁крыше
▁справедливости
▁полё
дилось
▁Руко
▁дос
▁поедин
стояние
▁плет
▁ключе
▁взросло
▁называет
разуме
▁общение
▁истину
▁здании
тишь
▁зоны
тормо
▁жутко
▁Пам
▁содер
▁Гам
▁торопливо
▁выводу
▁Пти
▁Большая
▁застря
▁Отлично
▁третьем
ock
▁образы
▁митин
▁Вади
▁пету
жище
▁приём
▁летит
▁хе
▁ненависти
здно
▁свидания
▁ma
▁Церковь
▁Год
▁законам
▁правды
▁писала
▁признаться
▁переписи
▁тайну
▁тонкие
кты
▁зверя
▁печально
▁Каждо
▁артиллерий
▁обычной
▁величай
▁Оксана
▁простите
▁маски
▁поездки
▁компен
▁Института
▁развернулся
▁приказы
хара
▁видать
▁Зло
▁стрелко
▁Ночью
▁пуга
▁Музея
▁Счита
рикан
▁Испании
▁выско
▁прод
▁наблюдения
▁насеко
ener
▁программа
лком
▁Никаких
▁улыбалась
лели
▁ненадолго
чевать
▁работников
▁Апол
▁ден
▁великих
▁бомбарди
▁идио
говой
▁достоинства
▁воспользоваться
▁пренебре
▁годом
▁похожий
▁блажен
▁Четы
▁помя
▁засмеялась
▁Андрю
вард
▁костюме
ХА
▁назначения
▁оставалась
▁1956
▁обжи
te
виль
▁bott
▁теория
чило
жах
▁лучшего
▁товарищей
летряс
▁привыкли
▁регистра
▁дворца
▁директором
▁фиоле
▁Эту
▁диале
▁1973
▁Увы
гене
▁разъя
▁подарки
▁упраж
▁Univers
▁уе
▁западной
▁Еванге
▁молитвы
▁сладко
▁разлу
▁name
▁шепотом
▁потряса
▁признался
▁1978
церы
▁Карти
влено
▁дель
▁семина
▁Роза
▁VI
▁наедине
▁пожар
следовать
бью
▁поначалу
▁тюрьме
▁килограм
▁слышишь
▁долгие
▁усер
▁состоялась
подоб
НУ
▁происходящее
▁показали
▁ехал
▁полы
▁встречались
▁начинать
▁российского
▁Белый
▁обращаясь
жими
▁типи
▁Дум
дям
▁введ
▁забор
хих
▁распре
▁отрав
▁поступа
▁целая
▁кандидат
▁Соф
▁тысячу
▁закре
▁канала
тивным
▁вторым
▁славы
▁одоб
▁жениться
▁набрал
▁воров
▁одинаково
▁самыми
▁скорей
▁финанси
▁консу
ственному
▁Машина
▁расписа
▁поражение
▁родного
НОВ
▁захочет
▁волнения
▁столовой
▁Впереди
▁попросту
▁ях
▁par
▁разбро
▁немецкий
▁Мило
▁1959
гови
енными
▁борьбу
▁первыми
зают
▁брату
▁хмыкнул
▁главная
▁Украин
▁наход
▁знакомства
▁Звез
▁порог
галь
▁поговорим
▁вытаски
▁наго
▁приятель
▁лома
▁1982
▁мыслях
▁прозви
▁выступает
▁занятие
▁находилось
▁Олега
▁веки
▁увидит
тельнее
▁полномо
▁позволи
▁ранен
▁боях
▁набор
▁уважением
▁покое
▁галере
▁проверя
беди
▁засте
ниям
ваемые
▁общественного
▁договорились
бус
▁слухи
рте
хнуть
▁насле
▁бай
▁святого
▁ГА
точка
▁временно
▁статья
▁скажите
▁Кристина
▁эксплуа
▁средство
▁выполнить
▁высоким
▁1968
▁ —
▁пределах
хро
▁Вероника
▁градусов
▁отвлек
▁капу
▁выши
▁этапе
▁Безу
шнего
▁короче
▁приехать
▁1981
▁сед
мирал
▁напрасно
▁1972
льному
▁абстра
▁1967
▁скалы
▁утверждает
▁безусловно
▁конкретно
ждались
▁Божий
▁СУ
▁чемодан
▁гумани
опа
▁контр
▁языки
▁Солда
▁88
▁прогно
▁скрыть
▁едет
гите
валил
▁установить
▁сообщить
▁израи
▁испуган
▁круга
стии
▁бары
▁срабо
▁бесполезно
▁тенден
▁гроб
▁ребенком
▁дря
▁Дро
▁вздрогнул
▁продать
▁Летом
▁английский
▁выглядела
▁Бориса
▁привел
▁царство
▁отправить
▁стеной
▁неопредел
TUR
▁bottom
▁вско
▁боятся
▁отдых
▁Груп
▁старости
▁Жизни
ваемся
▁обры
▁зачастую
▁фан
▁славу
ровский
▁учить
▁сово
▁чёрный
елье
▁Атлан
▁представляют
▁автором
▁температура
▁счастлива
▁народы
дё
▁выскочил
▁замо
▁линию
▁семейства
▁литов
▁растений
▁целе
▁случаи
▁1974
ертво
сибир
▁обря
▁ставит
▁глупости
тино
▁оттол
▁индей
▁Господин
▁прони
▁поцелуй
димся
▁мала
▁перемен
▁гул
▁открыли
▁Юно
▁использования
▁Уилья
▁ухмыль
пления
▁темные
хватить
▁сверка
чием
▁границе
▁журнале
▁народом
▁взрослые
▁трепет
▁народного
▁Неве
▁носит
▁повсед
ьями
▁мужика
ссом
▁Следова
▁Ур
▁крыша
▁эволюции
▁жестом
▁колено
▁Игна
▁Председа
виз
▁родину
▁удачно
▁паспорт
▁спры
▁половиной
▁очередную
▁отом
▁аэрод
▁доло
▁лесо
▁фыр
▁чудеса
▁Анны
▁жива
▁пределами
▁миллионы
▁коллеги
▁ПРА
▁выжить
▁сборную
▁ь
▁загру
▁тучи
▁кусты
▁изби
▁простых
▁опустился
▁соседней
▁насчиты
▁1971
▁колы
ната
▁борту
▁громче
РОВ
ЖИ
▁воспроиз
▁собственности
▁цара
▁организация
▁субботу
▁создавать
▁Ува
▁придумы
▁практике
▁плачет
▁трол
▁специфи
нга
▁элементар
▁урав
▁Кин
▁позволил
фикси
▁Джи
▁Помнишь
▁находясь
▁густой
▁интересует
▁расположена
▁встали
щиком
▁лети
▁1976
лие
пто
ющуюся
▁неловко
▁але
▁1964
▁молчала
HE
▁кулаком
▁танец
▁леги
▁базы
▁трава
▁планету
▁возникло
▁соч
ions
▁употребля
▁специалистов
рут
▁Гай
▁кас
чине
▁воины
▁большинстве
▁СВ
▁зарос
▁Мэри
▁аку
▁мировозз
ставила
▁винтов
▁вопреки
▁Валя
▁Подоб
▁Скажите
▁расчет
▁экспедиции
▁детство
▁возьму
▁следить
уна
▁Необ
жев
▁закончится
▁Комму
▁неблаго
▁полки
кнулся
снул
▁причу
▁миров
▁принца
▁велико
▁History
яв
еро
ого
▁фундамент
▁перебира
▁выиграл
▁72
iss
▁конференции
▁вдали
ug
▁Великобритании
▁коридора
ournal
▁Православ
▁вражде
▁щеке
▁уходят
▁девочек
▁Пять
миться
▁вих
▁обычного
▁смену
▁последнем
▁открывать
▁част
▁Белору
▁страниц
▁чел
▁организаций
МУ
▁Родители
▁Распо
▁рюм
ЛУ
▁попросить
▁Име
дио
▁делега
вика
▁сара
▁входя
▁сокру
▁привела
никова
▁фили
▁Давид
▁начинаю
▁1921
▁лежат
▁идем
▁заяв
▁бродя
▁хихи
▁научиться
▁секретар
▁цвето
▁неважно
▁Вернее
▁отчетливо
▁башни
▁Евгения
▁буржуа
жского
▁мисси
▁рек
зив
▁двести
▁КАК
▁хирур
▁играют
▁метод
▁Наполе
▁конечном
▁старательно
▁времён
▁эпоху
колов
тают
▁Постепенно
▁удивления
▁ветки
▁Мель
брался
▁ДУ
▁торжественно
скала
▁сило
▁поймать
▁поднялись
▁растерянно
▁совпад
ренный
▁государственных
дых
▁обстоятельств
▁Зев
▁Специ
▁уговари
ону
▁здраво
▁жизне
▁проф
▁прися
▁куртку
▁древние
▁пас
▁актер
▁слушала
▁страницы
▁играла
▁вынес
вес
летки
▁оже
ile
▁жемчу
▁галакти
▁Стало
▁грехи
▁БА
▁Бель
▁Возьми
▁попере
▁обиды
▁старались
стику
▁Отве
▁Бла
▁зарубе
▁Генераль
▁вправду
▁темноты
▁спрашивать
▁феном
▁фронте
▁встречаются
 го
▁драмати
▁пахнет
ллер
▁сменя
▁Кал
кладывать
▁страхом
▁Старый
▁закону
▁доволен
olog
▁do
▁десант
▁этно
штейн
▁собралась
▁помогал
ведь
▁совершить
▁дат
кту
▁истери
▁высшего
рены
тузиа
заны
тна
▁are
▁бил
▁изобрет
▁влияния
▁гуля
▁треуголь
▁остальным
▁физически
▁отреаги
▁выглядеть
цикло
▁превратилась
ненным
▁огромных
▁черная
▁снегу
▁волнов
ковал
▁исторических
▁взволно
▁шеве
ствию
▁Женщины
▁нервы
▁считала
▁Здоро
▁Пала
номо
▁выез
▁дошло
▁поспешно
▁высокая
▁извра
▁опуска
▁приходить
▁Мила
▁Бах
▁моста
махнулся
▁буй
мотала
▁простым
почку
▁кулак
▁поймал
▁свято
кот
▁доверя
▁Зла
▁щеки
▁бель
▁Баба
▁мане
▁манипу
▁верхней
▁Дэн
▁проле
▁выборов
сном
▁нажал
▁ветру
атра
▁центральной
▁Управ
жут
▁парка
▁богаты
▁зарегистри
▁Увер
▁враги
РАН
▁полоса
▁разошлись
▁См
▁камеру
▁плече
▁отпустил
▁подхватил
▁жиль
▁версия
▁Филипп
▁Алина
БО
воды
вающую
▁Греции
била
▁Гос
▁ударом
ир
▁спустился
▁бабы
▁чудом
▁защитить
▁избу
▁разным
▁1957
▁Октябрь
▁святых
▁весна
▁преподаватель
чева
▁хран
▁карма
▁свадьбы
▁искусств
лея
тового
щенная
▁Понял
▁прихода
▁перешел
▁массу
▁звать
льное
▁Прохо
▁мали
▁Серафи
▁преимущественно
▁отправили
▁облом
▁депре
▁жёст
▁Такого
ath
▁плав
▁перело
▁ушей
▁художников
▁Ваши
зам
▁лёт
▁целых
▁живем
▁тишину
▁женского
▁плохой
▁прого
▁простые
▁листо
цин
▁дороже
▁толпу
▁пух
▁мужчине
▁перевед
▁Участ
▁Сист
ено
▁Тяже
▁истина
диоз
хую
▁вплотную
▁патру
▁полковника
нори
▁произойти
▁удары
▁собо
просила
половину
▁сторона
▁глянул
▁социальных
▁развитии
▁поплы
▁свету
льная
▁почувствовать
▁Дья
влять
▁импуль
▁Крис
▁стояло
▁занятий
▁чёрные
ПА
▁перебил
▁проходят
▁факе
▁чистый
▁улиц
▁садится
▁присло
▁восприятия
▁активи
милась
▁проспек
зились
▁Влады
▁очков
▁полета
▁пытаюсь
▁плоско
▁обмен
▁пошевели
▁Ран
цова
▁родила
▁Солне
▁снис
нились
▁казались
▁Кло
▁Тамара
▁пациен
▁Ани
▁эффективно
▁почер
▁механиз
▁Интернет
▁неизбежно
▁общественной
ёром
▁черту
▁анализ
▁бывал
▁рассмеялась
▁пищу
▁Иоанна
▁Точнее
▁необходимые
▁воспитан
▁пира
ллиан
летий
водится
▁нога
▁Узна
▁Неиз
▁отвернулся
чике
▁троих
щенного
▁платья
▁Ара
▁Оси
▁свед
▁уходил
баты
▁злове
▁волк
пия
▁ученые
▁способна
▁поинтересовалась
▁свечи
▁Дан
ковое
▁напада
▁1962
▁Дядя
▁издалека
▁любая
▁бывшей
▁волости
▁обидно
▁незаме
▁двум
▁ОНА
▁видны
▁элементов
▁Cult
▁Дании
▁Дире
▁Газ
▁Подожди
▁испытывал
▁Напом
▁облик
▁немецких
▁галсту
ink
ходится
▁кричала
атри
▁чувствуешь
▁§
▁битвы
▁серый
▁апте
▁вину
▁Порт
▁включает
▁помещении
нутой
▁клетки
▁суде
▁замечает
▁замке
▁Катю
▁пообещал
▁спальню
▁грохо
▁возоб
▁умом
▁Чай
▁врачей
▁дикта
гря
▁нисколько
▁швед
▁альтерна
нично
▁собственным
▁отчаян
▁хок
▁подразуме
стской
▁рабочие
▁дочерью
▁всякое
▁гостиной
риз
▁родные
слись
▁соби
▁злоб
▁корабле
ьев
союз
▁ведо
▁гад
▁цвету
емости
▁сотен
най
▁улицах
▁Гарри
▁объекта
▁открытым
▁фигуру
▁присутствии
рда
▁крикнула
▁человеческий
▁1906
▁Жур
▁прику
▁сунду
▁звонить
▁умирает
▁знаки
▁известны
хина
▁структур
▁встречаться
▁заговор
▁тварь
▁дракон
▁ничуть
▁физио
▁Призна
валился
▁любому
▁допол
▁кустар
▁изыска
лицы
▁гражданской
▁искали
▁цену
зость
▁присво
▁1931
вающе
що
oy
▁рабы
▁массив
▁показывать
▁тюрьмы
▁600
ШИ
man
▁БУ
▁внешней
рядно
ничной
рованным
юми
▁all
▁вечной
▁испугалась
▁поворот
▁сада
▁чёрт
▁отрез
хнув
▁Деся
▁61
▁тобою
▁Василия
▁Кс
▁колеба
▁окнами
▁горько
▁паузу
стере
зиат
▁депутатов
▁Sp
▁безумно
▁репре
▁цепи
дитесь
▁доспе
рает
▁трубы
▁виски
▁успехом
▁письме
▁забудь
▁небольшое
▁сестрой
▁собаку
▁вый
▁заорал
▁переживания
▁королева
▁физической
▁пронес
▁репети
▁прочитать
▁Ны
▁Натали
▁собрание
▁экстра
▁бесплатно
▁связанные
▁изображения
▁170
▁зер
▁горит
▁» —
шени
▁брюки
▁вырваться
▁орби
▁греха
▁понес
валы
▁мудрость
▁гипно
▁бир
▁третья
▁Екатерина
▁Израиля
ап
▁опубликова
▁Пор
▁пустя
▁Очевидно
▁ушах
бери
гую
▁Йорк
▁крепость
▁коля
▁нужда
▁сижу
▁University
▁золотом
▁больных
пустив
пова
▁присл
▁совпа
▁Место
▁ведьма
▁награждён
▁Насе
▁яркий
тря
▁потянулся
вис
▁расст
▁зафикси
▁безжало
▁режима
▁1928
меялись
▁западе
▁миллион
пр
гнули
▁Афана
▁греб
▁прегра
▁предмета
▁партизан
СТВ
▁ежедневно
▁первонач
▁Русский
ёлок
▁волей
▁Стал
▁полку
▁заши
▁мыслью
▁СТА
следовал
▁десятка
▁li
▁сказка
▁зажму
▁познакомился
▁обязанно
▁аспи
▁ткани
▁Храни
▁Горба
▁1925
ance
▁Лер
▁просматри
▁бетон
▁юг
▁Пись
▁76
тивы
▁повел
▁направо
таю
50
▁смехом
▁наверху
▁застре
▁обеспечить
▁Двор
шедшая
▁арома
▁удержать
▁Мона
рившись
▁сильней
▁вынуждены
приим
▁div
графии
▁изменился
монов
▁хода
чивым
▁проши
▁статей
▁Сай
▁поняв
▁исце
▁напеча
▁достичь
▁некому
TURE
▁хвостом
▁удержа
▁сумер
▁сквер
▁бежали
▁учение
▁узнав
▁знакомым
▁снимать
▁магистра
▁стихотворение
▁ГЛАВА
стрий
▁сумо
▁собрания
▁декора
▁Петровна
▁тюрьму
alle
щица
▁команд
▁успокоить
ливой
▁налево
▁Гей
▁Вста
▁операцию
▁участвовать
▁счастливой
▁сопри
▁голубые
циклопе
тическая
▁Северо
▁патриар
тках
▁разбо
▁обеспечи
▁Профессор
няются
▁поде
▁свободе
▁женской
▁реакция
рела
мбу
▁выпря
▁небольшого
щало
▁фонда
▁неуверенно
▁получал
▁господи
▁парамет
▁повести
▁указывает
▁посёлок
тано
▁1933
совет
▁выводы
▁отро
▁краски
скон
▁храме
▁звания
▁черепа
▁НК
▁сжа
▁Практи
льности
▁ядови
▁неудоб
моз
▁путешествия
▁гол
▁насмешли
▁вступи
▁зиму
▁посоль
дитель
шную
▁энтузиа
▁фильмов
▁камеры
шное
▁прогло
читав
▁содержания
ЕЗ
▁создании
▁размером
скре
гл
▁сана
▁IS
▁господина
▁Стой
▁убедить
▁участник
▁хрен
TIC
▁реализации
▁Честно
▁1935
▁схватила
▁вспоминая
▁Изве
▁альбома
▁обстоятельствах
▁поступать
▁разговаривали
▁вытяну
товал
▁основу
летней
▁бумагу
▁животные
лине
▁закончить
▁стороной
лками
▁клят
▁пев
▁Семё
▁69
▁нахожу
▁1934
▁Одни
▁сегодняшний
▁пламени
▁каре
▁Лорен
▁языках
▁усадь
▁твоем
▁незакон
▁несет
жаются
▁случаю
▁сжима
щенное
юзе
▁науке
▁представляется
моло
▁освет
бия
▁выбирать
олог
▁переговоры
▁слабость
▁напле
▁красотой
▁Нар
▁вывер
▁поколение
чиной
▁бутер
▁ветви
lish
▁позор
▁вмеши
БА
▁национального
▁растения
▁футболист
▁Пси
▁желанием
▁подписал
▁тьма
▁усмехнулась
сец
▁скрылся
▁рубашку
льность
▁несколькими
▁Ух
▁вертик
▁французский
▁голубой
▁приносит
нис
▁верхов
▁водя
▁наступление
чете
▁следующим
▁1969
мотра
▁руководства
лд
▁белое
▁докла
лес
ence
▁поступки
▁лозу
▁гора
▁поступи
▁оценки
▁bl
ционное
▁очарова
▁серо
▁выясня
▁отделя
▁крыльями
▁ТЫ
▁вах
жего
▁Шев
▁научился
▁культура
▁щедро
▁Новости
▁готово
▁решет
▁ученых
▁количестве
▁развра
▁иера
▁культуре
ветов
▁международных
▁термин
▁офицера
▁ В
▁Джеймс
▁коню
лона
▁сигареты
▁завед
▁балкон
ницами
▁легкий
▁Благодар
ционную
гиб
▁держала
▁взы
▁множества
▁1923
▁улыбки
▁приблизительно
▁продукции
▁печать
▁встря
▁элементы
▁пещеры
▁замечательно
▁привезли
▁Жени
▁доброго
▁выде
▁километрах
▁татар
▁пир
мено
old
▁лестницы
сите
визион
▁взглянуть
▁физики
▁большому
▁сильное
▁поднимается
▁Сибири
▁Новосибир
▁умеют
бородок
▁состоял
▁боялись
▁подсказы
▁территори
▁орден
▁чашку
▁кормить
▁молока
▁Конститу
▁образова
▁поскорее
▁Кир
▁стремится
▁проника
▁1951
▁охваты
▁функциони
леку
▁любых
▁восточной
▁дворов
ake
▁выходили
▁Вид
жечь
▁Элек
▁настроения
▁используя
▁штор
▁уровнем
таясь
▁зрителей
▁диамет
▁ногам
▁открытие
▁вины
▁услыша
▁древне
▁ир
▁уволь
▁беды
▁охотно
тара
▁отте
сет
▁инжене
скохозяй
▁вед
▁Единственное
▁Трудно
▁используется
▁Государственной
▁выходят
▁умирать
▁кошки
▁объем
▁особых
▁консуль
▁старую
▁длинной
▁имеются
▁рады
▁бухгал
ЦА
▁пальчи
▁светя
▁подушку
▁отпуска
▁ящи
▁Орд
спект
▁существовании
▁меру
▁человеческие
▁ухода
▁корм
▁погибших
▁оце
▁похло
▁судорожно
▁впря
лежа
▁участке
▁Заха
▁устоя
▁зацепи
▁середины
▁нерав
▁переглянулись
▁убрать
ок
▁выборы
▁усталость
▁корни
▁маль
▁пасту
▁ожидала
ненько
▁хозяйство
▁бедня
▁Совершенно
▁интерпре
▁девяно
рительно
▁тумбо
▁Ужа
▁Чере
▁результатов
▁равен
▁смеялись
▁путешествен
▁заведения
▁наполовину
▁задумалась
70
▁попытку
▁обид
▁дрожь
НИЕ
нический
▁Слыш
▁эро
▁улыбнувшись
▁Южной
▁пенсию
▁тетя
▁замечал
▁вампир
▁Энер
ue
кою
зидиума
анали
▁заняты
национ
▁помогли
▁старуха
▁Потер
▁реконстру
ox
▁батальона
▁обучение
пьем
▁тьмы
▁рынка
▁Лес
▁владения
▁линей
кут
▁роду
▁следовать
▁Возле
▁Туда
ька
▁обща
▁правилам
▁лекции
▁влады
18
▁девяти
▁войн
▁началу
▁убит
▁роты
▁обле
▁подход
▁пушки
стел
▁стремя
▁мадам
▁встречается
▁окончании
▁фальши
▁печат
▁выка
▁манер
▁купила
▁темноту
▁важным
тус
дрой
▁лодки
▁попада
▁представляла
▁левую
▁отвечала
▁Постоя
риф
▁объе
▁восстановить
▁джинсы
▁озада
▁рыча
▁ДЕНЬ
кричал
▁прекрасной
▁обстре
тику
▁опозда
▁проры
▁президентом
▁прекрасная
▁Последние
▁покупать
ненного
▁услов
▁публикации
▁Кузь
▁крохот
▁Созна
▁интона
▁Можешь
▁Ахма
▁блоки
▁печень
▁ С
▁Проблем
▁шоро
▁детские
кове
лков
шедшей
olf
▁первому
▁ошибку
▁предложили
▁Кото
▁pl
вани
▁дивана
▁соотно
▁встречал
▁направились
▁тюрем
▁согласо
▁Которы
▁писали
▁добровольно
▁третье
▁гаранти
▁ем
ренных
▁старушка
▁несправедливо
▁Нена
▁возвращался
▁игнори
▁зме
▁фантазии
шня
▁удаля
▁яркие
▁понедельник
ьем
▁Богда
жской
▁выли
▁листок
▁видимости
▁Иосиф
▁1914
ровича
▁воскре
▁напряжение
рями
▁Ярослав
▁согласия
▁пролет
▁читателей
▁противопо
▁Русской
▁ложе
диа
▁глубокой
▁Подой
▁эле
▁Третий
▁американских
▁блага
▁подбородок
▁снов
▁милосер
ковыми
▁важней
▁реклам
▁тонн
СП
▁Начало
▁aut
▁четыр
▁легкой
▁тайна
▁Федо
▁потребу
▁вызов
▁курить
▁мужиков
▁взаимоотно
▁предметов
▁регионе
▁советские
хай
▁раздви
▁реальной
▁угрю
▁подсу
▁клы
▁Кле
▁Кем
▁Добрый
▁Необходи
▁извините
▁транспорта
▁доход
▁сопротивление
▁завы
▁ресторане
▁Советской
гора
▁Окончил
▁платок
водила
▁Ефи
▁вокзала
▁ищут
▁убы
▁дяди
ank
▁реже
еньше
http
▁головами
▁Генерал
▁газа
готов
▁Начина
▁патриоти
▁наступил
живая
▁выку
▁каст
▁петербург
NT
▁содержимое
▁затих
лятся
▁Робер
▁смотрите
▁помните
рованное
▁Библии
▁зашли
▁валь
▁Маргарита
▁Причём
▁Собственно
▁вечерин
летом
▁физиономи
▁av
▁прижал
▁потреби
метри
▁Путина
ical
▁Парти
кций
▁демократии
▁механизм
▁Сэ
▁безнаде
▁справедли
▁достато
▁стадии
▁Тере
▁ул
▁детских
ood
▁долгожда
▁влез
▁ЕВРОПА
▁удовлетвори
▁свежий
▁пище
▁принимали
▁драма
▁Украина
чику
▁печали
▁сует
▁тяжелый
▁Вере
▁спокойствие
int
▁Попробу
▁грави
▁Современ
▁простого
▁депутат
▁достовер
▁поймет
▁интереса
▁содержит
fter
▁сложности
рожден
▁Мам
▁this
▁ведро
▁юби
▁надё
ble
▁солнечный
▁плато
вшемся
▁Николаев
▁заняли
уз
▁дадут
сые
▁di
▁Ала
▁энерго
▁сай
▁Сю
▁священник
▁Билл
лём
▁подво
▁читателя
▁замкну
▁рюкзак
▁любопытством
▁начинали
▁маку
шись
▁всматри
▁Всеволо
▁Сей
14
зовать
▁департа
▁мечом
сскую
▁Европей
▁связана
▁танки
▁приключения
▁командиром
▁копей
▁наци
емуа
▁свободной
▁змеи
▁Сквозь
▁изна
▁помы
▁выки
рило
▁Князь
дес
und
▁Желез
▁изрядно
▁отказалась
▁вследствие
▁95
▁Четыре
▁спла
▁зы
▁Нав
▁всюду
▁ездить
ньем
корд
▁гряду
▁единой
стон
шов
▁молчать
▁факультета
авто
▁подпо
▁вопросительно
▁коже
▁превращается
▁сказку
▁коммуника
▁разговоров
▁победа
▁выдохнул
▁проволо
▁соль
▁звонка
▁сжал
▁авари
▁Принце
▁Язы
▁анализа
▁x
▁Плю
▁Принц
▁имену
▁вздо
▁Текст
лимпиа
▁втро
▁насу
▁лучшем
▁замед
▁человеческое
▁светлые
▁1952
▁объяснения
говорили
▁доказательства
шник
▁подняв
ренной
▁зеленые
▁желаю
▁нации
▁расширя
тике
▁танцевать
19
хождение
▁затяги
▁мальчишки
▁отдыхать
евой
▁услышали
▁ныр
няясь
▁полуо
▁политике
▁Иза
▁пада
▁забрал
▁шеи
▁попри
▁известные
ЭС
МЕ
▁заканчивается
▁поэтов
зопа
▁блока
▁ук
▁родная
ah
▁индий
▁Най
дый
ons
вене
▁экипажа
▁уверены
твра
▁Имя
▁исправить
▁известной
▁Вечер
шара
▁победить
▁фильмы
▁потро
▁ростом
▁сотрудник
▁напряжения
▁масло
стройки
▁ош
▁посмотрели
ination
▁Офици
▁Насколько
▁живы
▁особый
чему
▁красными
▁приходила
▁атаки
нуты
▁получит
демон
▁миним
▁отвле
▁моду
▁воздействия
▁изучать
▁ванную
дений
▁величе
▁общественных
▁открытой
шились
▁ребён
▁уезд
▁замеша
▁древно
▁годам
▁добрым
▁безот
▁морю
норм
▁каба
▁Алло
▁балан
▁методы
▁тонкой
▁заменя
▁высоту
▁Духов
▁училища
▁фору
▁Ксю
▁остановки
▁пропасть
▁пятидесяти
▁выходные
▁погреб
▁севере
▁опустила
▁веришь
▁сиде
▁бегать
щён
▁СВО
▁Севасто
ик
▁таба
▁молчит
летает
▁черном
▁флот
▁ЛИ
▁Цель
коман
▁ведёт
▁размера
▁дна
▁особенного
▁бережно
▁желал
▁пункта
▁глад
▁вспомнив
▁шири
▁намере
▁Ростов
▁уце
▁мешать
▁прочее
▁женат
▁уснул
лену
▁подска
▁безмол
▁Эпи
▁прожил
▁93
▁распредел
▁ула
▁столицу
▁Таких
▁преодоле
шеп
▁выигры
▁последовал
▁вспле
▁наказания
▁Геннадий
▁Польши
▁Пресвя
▁неправ
▁пожала
▁специалист
▁обращаться
▁Тран
▁сельскохозяй
▁канику
▁прекрасное
▁повяз
▁решает
▁Норм
▁подбира
▁войсками
▁притяги
▁заставила
▁ствол
дными
▁пустые
▁прести
ненная
▁снегом
▁Виктория
▁Двое
▁редактор
торами
несса
▁варианты
НЫХ
▁Спросил
▁похорон
▁вырабо
▁дерз
▁подождать
▁Вороне
юри
▁ора
зик
▁гипер
▁сунул
▁лениво
▁зеленый
▁проводили
▁компьютера
▁предлагаю
▁боишься
ванную
▁странная
деев
охрани
НЯ
▁переку
▁услуги
▁счастливым
▁семьей
▁Уго
чите
▁глубину
▁стих
▁родитель
▁Бой
▁присоеди
▁Тал
▁Продолжение
▁засы
▁глубокий
▁Лина
▁Фёдор
▁огоро
▁рухнул
▁допустить
данных
крат
▁подумав
▁Объ
▁An
▁Аркадий
▁Центра
ih
▁япон
▁96
▁Самый
▁КГБ
▁издание
▁природой
▁незначи
▁гнез
▁нападения
▁гидро
▁начнут
▁выпустил
▁входила
шусь
▁провока
▁ЕВРОПЫ
▁проходила
▁грамо
▁Конец
▁Вряд
▁Кое
▁разному
▁XVII
▁безд
▁мирового
▁глупость
▁Дмитрия
▁покая
▁порту
▁none
▁показывают
▁тере
▁Бела
▁среду
рочно
▁любимым
нического
▁Органи
▁маленькое
▁билеты
чук
▁Послушай
▁выполни
▁продолжается
▁Ранее
▁козы
▁сняла
юрод
▁сайт
▁желаний
гат
▁вызвали
шней
▁развитию
▁РАЗ
менем
▁Клу
▁мяте
ваемой
▁взмах
▁Каким
▁убийца
▁ущерб
▁банков
▁Дорога
втори
▁покинули
сид
▁Наиболее
▁Жить
▁Ней
▁тошно
▁растворя
▁замира
▁попытаться
▁предотвра
ционным
▁невозму
▁слушай
▁Cl
▁небольшим
▁закружи
▁Изу
▁посты
▁тексты
▁Рука
▁держаться
ok
▁корруп
жаясь
вязан
▁перешли
▁Ски
▁опровер
▁разра
▁сперва
▁жажду
▁литература
▁обнаружила
дзе
▁гну
брала
шом
▁набо
▁открывается
▁ударов
▁вопросами
грав
▁четверть
▁переводе
▁простить
▁матч
▁книжку
▁международного
▁ М
нат
▁Кубка
▁плака
▁суждено
▁ТАК
▁Лы
▁мрачно
▁Грейс
▁просьбой
▁заняла
▁свободного
▁давление
стку
▁проре
КОВ
▁констати
▁экзо
▁соседа
рным
▁устройство
▁Маги
▁Ню
ённая
▁отрабо
▁учреждения
▁возможным
▁берут
▁трю
▁работаю
▁станешь
▁щекам
▁черными
▁1955
▁Фро
▁произошел
▁Горо
▁оценить
▁кувши
▁обстановке
▁тщет
▁UK
▁частенько
▁хорошую
▁Киеве
▁конститу
▁благодарность
▁произойдет
▁самолёт
▁лаби
лот
▁папы
▁согласиться
▁пропу
▁офицеры
▁послушно
▁прошлый
▁великим
▁турнире
▁скончался
длов
ином
▁Утро
▁tro
етами
▁Бол
▁кредит
▁потем
▁конфликт
▁крем
▁комен
▁ступени
▁гнева
▁Соедин
▁рядо
▁входят
▁интим
▁решив
▁man
читан
▁надписью
▁пачку
▁боевые
▁Иск
▁пойдём
телях
▁плевать
▁обычные
▁юге
▁побежали
риев
беки
▁представляешь
▁устройства
▁среднем
▁лейтенанта
▁поди
шивать
▁Взгляд
▁пели
▁Западной
▁вмеша
▁тяжелые
▁народе
▁описание
▁Ску
▁шага
редине
мович
▁лечения
▁просту
▁старым
▁ближайшее
▁приш
▁Петру
▁фоль
коном
▁дереву
томник
▁песча
▁подъезд
▁внес
▁затылок
треб
13
▁славян
ненное
▁олигар
▁work
▁питания
▁аспек
▁Живо
▁делика
▁остановке
▁ошибок
▁олимпий
лланд
▁социально
ляция
▁спинку
▁отмени
pr
ливых
▁окружающей
▁авторы
▁зданий
силась
▁замерла
▁предприятий
▁этап
тово
▁преодолеть
▁Повер
▁огур
▁красных
▁ртом
цева
▁пояса
▁фотографию
▁продю
▁Российская
▁бесстра
▁короткие
▁интересного
▁Отли
▁восстанавли
▁неуме
▁риф
▁определение
▁неудобно
▁процессы
▁обязаны
▁пош
▁почет
▁познакомились
▁78
▁создали
▁вблизи
▁связанных
▁счету
▁пахло
▁исчер
▁Друго
▁Улья
▁крупный
▁Сирии
▁любимую
▁акции
▁нелепо
▁обстановку
▁напе
▁регули
▁цыган
▁Азербайджа
▁неис
▁Николаевна
томи
зора
▁Ричард
▁шеле
▁ЕС
▁кроше
▁упасть
пина
▁выпили
▁пок
▁Вижу
▁сомневался
▁73
▁местный
▁огла
▁источников
▁Германия
▁раздумы
▁приспособ
▁совету
▁исчезает
▁губернатор
▁движении
▁Вовка
▁согласна
▁печати
▁небом
▁собираются
▁Васи
зиру
▁особое
▁собеседника
пай
▁хлы
▁круто
▁Венг
▁вершине
дёшь
▁нагруз
▁плохое
мите
▁Рассказы
▁просла
▁Учитель
▁Руслан
▁ И
▁съем
▁Внима
▁бросились
зала
▁руль
▁глазки
▁1927
▁ответили
▁костер
▁хороших
▁личный
▁выпали
▁праздника
▁поцеловала
 гг
▁иным
▁тороп
шников
трин
▁воевать
▁операция
▁важнее
▁оха
▁убедиться
▁Лат
▁окрестно
▁сё
▁зеркале
▁бедра
▁Аля
▁холодным
▁разговаривал
▁разного
▁курил
рованию
▁ожив
aria
▁больного
новского
▁вклад
▁заглянуть
▁перевести
▁кося
▁проигры
▁зарплату
▁лишний
нын
▁встрево
ходишь
▁молодежи
▁обычных
▁лив
▁преследу
кало
▁Юли
шна
▁пд
ням
▁следующую
▁держали
стному
лагалось
▁солнышко
▁сложнее
▁отчасти
ЩИ
▁Восточной
▁участники
▁Диа
▁счастливо
▁автобуса
▁Услы
▁дошли
▁союза
▁узнаю
▁ser
▁Молодец
▁столетия
ренко
▁Него
▁решено
▁маркси
▁городских
▁положить
▁автоматически
▁покру
▁личное
▁плеча
▁хохот
▁летнего
▁Швейца
рке
▁Жанна
▁начнет
▁описать
кв
▁турнира
нувшего
▁доброе
▁уехали
▁лесной
▁днях
▁линия
up
▁крей
▁ценностей
▁отпеча
ITE
▁Ильич
▁американского
▁выдержа
▁властей
▁увеличи
▁гипоте
кии
▁принялись
шю
▁беск
ЕРА
хождения
стеро
зида
▁весны
▁поддерживать
▁кризис
▁покачи
▁компанией
▁пел
несло
▁грудью
▁поехала
▁помогу
▁Тет
▁Бала
▁обере
▁робко
▁богатство
джер
▁Булга
▁Иоанн
▁открыв
ould
▁кардин
▁Коз
воров
▁AR
кивал
▁предварительно
▁получают
чатки
▁джа
▁асфальт
ист
ae
▁похожие
▁Лондоне
▁пустота
ликов
▁It
▁говорим
▁позволит
▁выдал
▁библиотека
▁использование
▁продемон
▁палаты
▁ярости
▁завяз
▁74
нечка
▁порога
чьего
▁ослепи
▁апосто
▁заказы
▁судья
словие
▁букет
▁Галя
ash
▁Bl
▁белую
▁выстрел
▁недоступ
▁поддержа
▁присела
▁полюби
▁удивлённо
▁процессов
▁исторической
▁рыбал
▁едем
OV
▁даче
▁неприя
▁флаг
▁Напомним
▁перешла
▁происходящего
▁кипя
▁уль
ove
▁позе
▁желании
▁тратить
▁задал
EV
▁ошибка
▁американской
▁опусто
▁Пале
чьих
▁поделиться
▁старшим
▁скру
▁участка
ep
ime
▁Джен
▁рассказывали
▁стоимость
▁кольца
▁виновата
▁Лау
▁означало
льм
▁Кузне
▁поделать
▁продемонстри
▁землетряс
▁Ол
упо
▁открыт
▁Ноги
▁виден
▁снови
▁парнем
▁преступление
▁трагедии
▁Шан
▁Пона
бязательно
▁авиации
нове
▁1910
▁насиль
взо
▁пойдёт
▁румя
▁коммуны
▁председателем
▁хозяйств
тури
▁gr
▁думай
▁общих
▁шур
рассу
▁воображение
▁глоток
▁присутствующих
▁Новгород
▁Одновременно
▁выгляды
▁зубов
дни
▁мудрости
▁рассмот
▁растут
клы
▁ПР
▁серой
▁всерьез
▁гражданин
дья
мие
▁Дин
▁нереши
▁овра
▁комплекса
▁наступила
рея
▁смотришь
▁придут
▁ряду
▁известным
▁бизнеса
▁предатель
▁дипломати
▁бодро
жному
▁хозяев
хранения
▁напомнил
▁ошибся
▁милость
▁базу
▁установлены
шиться
▁разрешение
▁писем
▁радоваться
▁грандиоз
ногу
▁Мих
▁всякую
▁живая
▁пристро
стор
▁тоска
рёл
▁изменилась
▁лужи
стине
органи
зель
▁возна
▁Уил
▁брака
▁занималась
▁великое
▁милицию
▁банку
▁Став
▁показывали
▁Рэ
▁дракона
▁трапе
▁сар
▁выражением
▁признание
▁Кровь
▁сильного
▁Мали
▁секса
▁боку
▁противно
▁недви
▁фини
▁нарушения
▁госуда
▁домам
сар
▁пополам
▁гвардии
▁Люблю
▁Леона
▁изменений
▁Вождь
▁подниматься
▁горю
▁поступок
▁нежела
▁es
▁дожидаясь
▁знакомство
▁отдели
▁кухо
▁Последнее
хнули
▁тротуа
▁благоу
▁дачу
▁актёр
▁проводит
▁выно
▁Саня
▁Примерно
▁дрова
▁сомни
▁освобождения
eop
▁лай
▁латы
▁горле
▁трон
▁матча
▁коем
скет
▁халат
ыми
▁звёзды
▁криком
▁моск
▁создана
▁использовал
▁звездо
▁Валера
чивость
шенное
сну
бл
▁муску
▁отдавать
▁терпеливо
▁относиться
▁гастро
▁грехов
▁разговоре
зией
▁адеква
▁участием
OVA
▁сестре
▁дурац
▁талан
▁Пал
▁наступает
▁огромными
нема
▁высших
▁зату
▁манья
▁рабов
▁водителя
▁1915
▁зра
тарь
▁Изда
▁солдата
щимся
▁купо
▁мечтала
чивые
▁коробку
▁Новой
ise
▁госпожа
▁заглу
▁обычным
▁Хер
ear
▁Верно
▁ П
▁отталки
▁лишних
грамма
кается
▁добрая
▁угрожа
▁Com
▁произно
жете
▁муки
▁запросто
▁пик
▁пауза
▁политические
▁прожить
▁помогла
AD
▁Архан
▁Кари
▁матчей
▁Спарта
▁туфли
▁инвести
▁битве
▁церк
▁выставля
▁Боги
▁станция
▁прибор
новый
жиз
слом
▁случается
▁ере
▁разво
▁зрелище
▁Недо
▁177
▁часами
▁нарушение
летнего
▁страшные
▁пробира
▁переехал
▁тонкий
▁вкусно
▁входил
▁чаю
▁сбли
пые
шы
▁обеспечения
▁Джордж
▁шну
сор
▁волнуйся
тропо
▁важные
▁местам
▁договора
▁миры
хнет
▁предупредил
▁прослу
▁хор
▁небрежно
▁Пашка
▁экипаж
ённым
▁проверки
спа
▁выбран
▁целые
▁Отно
сыла
▁экологи
▁загу
▁Поверь
▁автобусе
▁животного
▁ручей
▁Выходит
▁опытом
▁твари
▁Центр
▁пустоту
комна
нимался
ОО
▁итогам
▁рекоменда
▁вывел
▁тарелку
▁искр
▁плачу
нков
▁чаем
▁равноду
ЧЕС
▁спектакль
▁сахар
▁плоды
▁воссо
▁парали
▁пооб
▁немецкого
▁радик
лемент
▁шутки
▁Боюсь
▁гомо
▁цивилизация
▁Гитлер
▁сотвор
▁упразд
▁металла
▁повседнев
жимая
▁ощущал
▁Лар
▁возмутился
▁закончила
▁сможете
СКИЙ
▁ручки
▁палату
▁поздоро
▁дивизия
▁немысли
▁вставать
▁обращение
▁свети
служа
▁аспиран
▁Францу
▁Борисо
женном
▁утру
▁прекратить
▁многозна
▁скле
▁змей
▁кожей
словия
▁рассказали
▁взамен
▁разглядывая
▁совокуп
▁творится
ковали
▁негромко
сели
▁куча
▁ужасе
▁встретили
▁Серега
▁заморо
▁врез
▁приход
▁потерян
▁Лили
▁показаться
ЕГО
▁вздрогнула
▁смены
▁востоку
▁цифры
▁Иде
▁оставшиеся
▁позабо
▁Льво
▁мудре
▁нащу
▁молнии
▁кримин
▁синие
▁уважение
▁окружи
▁Филосо
валом
▁растет
▁изучения
▁разоз
▁трудности
▁лауре
▁пришель
▁сражения
▁музее
▁улыбке
▁нехотя
▁иго
▁майора
▁привяз
гера
▁АР
▁дозво
▁чёрной
жины
роб
фий
▁прекрасные
▁акцен
▁губернатора
▁привыкла
▁скоман
ньки
▁стою
▁политический
ровской
▁черным
▁заста
▁отыскать
▁бриллиан
жника
товым
▁сухой
казом
▁дворце
▁происходят
▁Мороз
▁праздно
▁пьяный
▁граждане
лагаю
▁мужского
▁Востока
▁зомби
▁Светла
▁одиночества
▁скот
▁бесшу
▁напрямую
лога
▁брали
▁юноши
▁пятно
опера
▁Речь
менным
▁взгляде
▁поражения
▁пойму
▁отнес
▁густо
▁поедем
▁пятна
▁исполнилось
▁Получается
вавший
▁правоохрани
▁студии
▁Ата
глубь
▁ате
▁коммунисти
▁соску
▁Ом
▁бормо
▁присутствует
▁классов
▁бери
▁неохо
шедшее
▁НКВД
▁необходимое
▁болель
▁чуда
▁герцог
▁вооружён
▁странного
▁важный
▁листьев
шкам
▁нагру
▁близости
хоз
▁продоволь
▁86
▁гордость
▁многими
▁мотор
▁хла
▁рукав
▁пятницу
▁занимаются
▁Мей
нической
▁принёс
линг
▁кастрю
▁предвку
▁появляться
▁меньшей
▁Командир
▁топор
▁любопытство
▁pag
▁кафедры
▁непол
▁согласие
▁городок
рально
▁вымы
▁каль
▁National
▁беззащи
▁ограничи
▁руководителя
▁счастливы
▁Вполне
▁тоск
▁равнодуш
стник
▁Альберт
▁договари
▁tr
тение
▁диссертацию
▁плечах
ротвор
▁сферы
▁направил
▁захват
▁костей
чур
▁отку
▁легкие
▁кок
▁задач
reat
▁апло
▁уделя
▁интеллигент
▁You
снула
▁конфи
▁us
новаться
изма
▁соу
▁попало
пс
▁одиночество
▁широкий
▁Ката
▁спокойной
▁найдет
▁победил
▁Леон
▁профессии
▁собираться
▁Каждая
▁озву
▁падали
▁перепи
▁Пру
▁воль
▁покачала
▁круги
▁живопис
▁оклик
▁сильной
▁Пле
▁пожертво
ss
▁am
▁похожее
тете
▁ездил
▁Юлия
▁сэ
▁имеешь
▁Патриар
▁следов
▁шпа
▁площадку
▁уютно
▁отчёт
▁уснуть
▁поправля
ann
▁оставлять
▁женщинам
▁вариантов
▁выйдя
▁щеку
▁масси
▁офис
▁дока
▁средних
▁моль
кей
▁двенадцати
▁мерца
▁каму
▁Маши
▁Времени
▁вглубь
▁чечен
▁политику
▁влиянием
бры
▁обмо
▁ К
▁направлению
▁длиной
▁сделаем
тическое
24
▁верила
▁мурав
▁взды
▁бабка
▁Волк
▁уще
ковом
▁нормальный
▁золотых
цело
ации
▁шкафа
▁игрушки
▁сильная
шут
▁казаться
▁равновесие
кович
ппо
нио
бят
▁эй
▁подняли
▁чувстви
▁РК
AR
▁построен
▁стуле
кался
▁аэропор
▁посетителей
▁ед
▁мрамор
▁рв
▁визу
▁использовали
▁поднимает
▁колоси
▁посуду
▁Вначале
▁Фак
▁штраф
▁дыша
▁срока
▁синий
▁привлечь
▁пова
тивными
▁старей
▁угрозы
▁окружении
▁сиденье
▁топли
▁Бло
▁креди
▁уселся
ВИЧ
▁буркнул
16
▁поддержал
▁картинки
▁разбор
махи
▁проходи
▁отпусти
▁трога
▁face
завтра
▁лучшей
ЯН
▁Сережа
▁учитывая
▁закрыв
▁добрался
▁латин
ДЫ
▁Дик
▁Дву
▁пехот
стрии
стерна
▁огнём
▁молеку
▁окраине
▁полз
▁куку
▁плакал
▁ar
▁Радо
ндро
мий
▁универс
▁берёт
▁допро
▁восторга
лоб
СБ
▁подер
ждалась
▁добле
▁Грин
▁наси
▁библей
▁максимально
зис
▁просьбе
▁беззабо
▁заключения
пался
▁странной
▁родным
▁привычно
хает
▁появиться
▁выре
▁Офи
мога
зона
ect
нел
▁предки
новые
▁кг
▁змея
▁папой
▁доски
▁могилу
▁Марта
▁оккупа
▁завери
▁взглянув
▁гос
▁нечем
▁пополз
глазы
▁натураль
▁точке
▁поднимая
▁трижды
▁раскра
▁определения
▁Широ
▁Президента
вная
▁Станислав
▁специальности
▁вещами
▁развяз
▁открывая
▁теряет
тефак
▁Красо
▁покор
▁свин
шейся
▁оформи
денного
пёр
▁Джим
ённое
▁показывал
ровало
▁облегчением
▁маленькими
▁тун
сторожно
▁so
▁Мару
мились
▁улыбаться
▁Вит
▁нужным
▁Результа
▁вска
▁бумаге
▁пережить
меры
▁движений
▁книгах
▁Сум
▁Который
▁Университета
▁слушаю
▁волн
ПУ
венно
▁Жил
▁Всероссий
▁воздухом
▁любитель
▁жертво
▁камнем
▁77
▁коллег
▁забывать
▁gov
▁Culture
▁видение
▁Твои
▁Истори
▁Васильев
▁привяза
▁Шек
▁выдержала
▁английского
▁заменить
▁опомни
▁рисунок
▁высокую
▁ука
▁курсы
▁незнакомец
▁организовать
▁космос
▁западу
▁отвлечь
▁купили
▁легким
ься
▁Фото
муля
▁выразить
▁Солов
▁прям
▁прорабо
▁Смолен
▁Ивану
▁становилась
▁громо
▁Бей
▁рель
▁карта
▁твёрдо
▁опустилась
▁устроил
пут
▁исключения
▁заставили
▁учил
▁религия
▁звуков
грации
▁Позво
▁казар
▁энергией
▁синте
▁вагона
бился
трибу
▁Фридри
▁охота
▁неделя
▁одета
ЛЕКС
▁сжим
▁Афгани
▁изгна
▁номере
▁Работал
▁запахом
▁искала
гивать
eople
▁обсуждали
▁содей
▁моде
▁колони
▁набережной
▁темной
oh
кас
▁непоня
▁оглядываясь
▁Мекси
▁телевизору
▁рассып
▁красивых
топ
▁Старо
стрей
▁вдаль
▁одобри
▁подать
▁up
▁обраща
▁действиях
▁выпры
нута
▁Волшеб
ливого
мести
▁свал
▁Лебе
▁ЕГО
▁осмотрел
▁Страх
вностью
▁исполнения
▁редакции
▁вибра
▁экземпля
▁предсказа
▁подсказ
▁бля
▁Орлов
▁Катерина
▁наряду
▁протеста
▁кван
▁вином
▁шагнул
▁выбрасы
▁практику
▁раскал
▁бабушке
▁фикси
рации
▁признаки
▁шума
▁существовало
▁нить
щаяся
▁собственность
▁училась
МЫ
▁Вячеслав
▁Вова
▁углом
▁били
▁Стать
▁Здорово
▁требовалось
▁лучами
▁Китая
▁грима
▁Mar
▁используют
▁смяг
▁вещества
▁камнями
▁веро
▁здеш
▁ученик
▁числи
▁плодо
▁наклонился
▁устроили
▁брев
▁Какого
стрем
▁його
▁успокоился
прашивать
▁звонит
▁гостиницы
▁Название
▁категорически
▁воспе
▁Павлович
▁Карла
▁сок
▁Am
▁Диана
кинув
▁тера
▁терпи
▁опустив
▁ХО
▁номером
▁ловить
▁вн
▁подозрительно
▁автомобилей
гию
▁мертве
▁англича
▁пропуск
▁прост
▁рамки
▁взглядов
▁наем
▁секретаря
▁выкрик
▁gener
▁положив
вным
▁карьеры
▁насти
мары
▁уходили
▁репута
17
▁Опа
▁одиноко
▁2040
дины
▁мяч
служ
▁общим
▁res
▁чиновников
▁племена
▁записку
▁ухмыльнулся
НОЕ
▁составляли
elf
▁коф
метро
▁Юрь
бине
▁лири
▁Аристо
▁алле
▁домах
▁фиг
моно
▁книжки
▁огляделся
▁поесть
▁немецкой
дорович
▁восторг
▁драгоц
▁приказу
▁live
▁попла
▁общая
кки
▁Деду
▁мощь
▁горячий
▁начинала
мик
▁Свердлов
лагали
▁ценой
▁важных
▁инци
▁замечая
▁парню
▁женщинами
▁Генрих
оса
▁правах
▁печи
▁белье
▁увижу
▁созы
▁росли
▁Хэ
▁подав
▁силуэт
▁известна
▁Треть
▁упру
▁ярким
▁престо
▁Успе
▁окне
реть
▁Элиза
▁Финлян
▁отошел
▁вывести
▁вернул
▁Митя
вляя
▁обращается
ровалось
▁неторопливо
▁высшее
▁доверие
емори
▁Турции
сью
▁красав
▁дог
вна
▁приедет
▁диагно
▁движется
▁наличии
▁разведки
▁Сила
лёй
вывая
▁всячески
▁вёл
▁торча
стны
▁осознал
ах
▁египет
▁паре
ционном
▁очнулся
▁пустыне
▁рукам
вных
мата
▁РИА
▁упира
▁целовать
теро
▁прижима
▁режиме
ES
форд
▁сельское
▁двигатель
▁Спра
▁беспоща
▁забрали
▁опира
▁Rudolf
▁воспиты
▁характеризу
▁затруд
▁разброса
▁вяз
▁мероприя
рун
▁Президиума
▁знакомого
▁просьбу
▁бегом
▁Достаточно
▁Мати
▁свире
▁мелочи
▁Друг
▁телевизион
▁решений
▁капля
муд
фия
▁будущей
▁полиция
далё
▁встретился
▁поеду
пон
▁неделе
▁ритм
▁сильных
▁луны
ВЕР
▁полные
▁Гаври
гаются
рогой
▁коробо
▁Социалисти
▁напоминал
▁Зака
енек
▁лихорадо
▁Ром
 году
▁скромно
▁коша
▁АЛЕКС
▁Ma
писать
▁зимы
▁судно
▁отдали
стижи
land
▁мощный
▁блокно
▁лететь
▁попер
▁Арм
квизи
▁очертания
▁обрет
▁охла
▁Валерия
▁назо
щину
▁пятый
▁равнодушно
▁Маке
▁рассуждения
▁благотвори
▁сняли
▁обращения
сист
▁простор
▁Египет
▁Израиле
▁следствия
▁упер
▁объяснение
▁морду
▁удивлению
▁поиск
▁яд
▁стуль
ваемого
▁кала
▁потребовал
жаем
▁sign
▁древнего
▁промель
▁плеч
▁умни
▁Толстой
▁замерз
графа
▁коллекти
▁Против
▁висит
▁шире
▁изучал
▁Берлин
▁швыр
▁Саха
▁Чита
▁красивым
чести
▁корреспонден
ализации
▁концентра
стике
▁животе
▁исключи
▁определяет
▁миниат
▁папу
менные
▁обрыв
▁основным
▁порно
▁беспри
▁репли
гс
▁музыке
тости
▁pagination
▁гостеприим
▁Старший
▁девочкой
▁творить
▁безрабо
▁адресу
▁жара
▁горячей
▁киноте
▁осмыс
▁риску
▁Россией
▁шумно
▁английском
▁Мужчины
▁спокойным
▁Начальник
▁внешнего
▁политического
▁подобие
сились
▁Думаешь
▁обога
▁почу
▁нужды
сики
▁неприятности
▁соседка
▁Mso
▁шё
▁wid
▁Напротив
▁решением
▁мгновений
▁цепь
▁нужный
▁прощание
шинг
▁слушая
83
▁чистого
▁ветерок
▁чертов
▁вправо
▁неуклю
▁верный
▁астра
▁чушь
▁вершины
▁Вернувшись
▁впрямь
▁отвлека
▁Феликс
▁чайник
▁заключение
▁расправи
▁Марья
▁демона
▁берем
шон
нимая
▁племен
щенным
вр
▁спросили
пец
▁приче
▁кричали
▁нагля
▁мечтать
▁подругой
▁Славя
циоз
▁исполнении
▁накор
▁Административный
▁1913
скивая
лыб
▁бесед
▁дири
▁Кала
▁Леша
▁ушло
▁коров
▁удается
▁выступать
▁студенты
▁Гол
еньких
▁формирования
▁младшего
▁выращи
▁допу
▁направлен
▁лип
▁списке
▁понимании
▁штук
▁неповтори
▁горячо
▁дружба
▁помер
▁подко
ект
▁отрицательно
▁страшная
▁слёз
▁СК
▁огни
▁сердцах
▁Соро
▁Владимирович
▁учителей
▁зени
▁смеялся
▁тайно
▁Раду
▁неак
▁дядю
▁Лидия
▁изму
▁красивое
▁большего
▁ноч
▁воп
IO
▁страшной
▁кустов
▁пугови
▁бежала
▁подходил
▁правде
▁поступила
▁песка
▁переходит
▁Вей
▁сюрприз
▁эпизод
дью
▁Будучи
▁попадает
▁двинулись
▁девочке
нон
СК
▁принимают
▁176
стке
▁критики
▁попробовал
▁встреч
шева
▁собственном
▁волно
кера
▁лечение
▁степи
▁применения
дях
▁облако
▁богатства
▁ценность
▁активности
CE
▁практики
▁Твер
▁черную
▁Андреевич
▁парламент
ця
▁взором
act
ator
▁Матве
▁заместителем
обе
▁научного
▁Сва
цет
▁Супер
▁узо
▁красная
▁скрывать
▁личные
▁отнести
▁мальчики
▁Марин
▁Ас
▁обвинения
▁Бара
▁Мистер
▁бей
любо
▁понравится
▁процвета
▁Угу
жер
гливо
▁состра
▁Паль
▁шутка
▁92
▁новогод
▁пятер
▁количеством
▁справедливость
▁Истории
▁заряд
▁представляю
ТОР
▁Гриша
▁погоду
▁упи
▁поблизости
сталь
лённый
▁командованием
▁запомнил
▁Узбеки
▁сопо
▁Ворон
▁мотива
▁прежней
▁контролировать
▁освободить
вкой
▁кузне
▁туристов
лор
▁освя
▁распи
▁Охот
▁Товарищ
▁французского
носила
▁Маленький
▁Уча
▁охранник
▁ДЛЯ
пками
▁возможных
▁пунктов
тнул
▁поправ
вени
▁северной
▁Смотрите
▁дуб
▁ноут
▁палате
▁личных
▁обуслов
▁ликвида
▁посёлка
▁некое
следок
▁обратить
▁судов
▁est
▁обычная
▁симпа
▁триста
▁насилия
▁переспросил
▁эс
▁слушали
▁получился
▁СПб
▁неподвижно
▁результатом
▁Калифор
▁машинально
▁морских
▁кал
▁Весе
рованную
▁верят
▁нравятся
▁убежать
▁шей
▁веря
▁левом
▁ветера
▁детского
▁Выбор
▁сади
пых
▁Воспо
▁Стан
▁научный
▁резиден
▁Хотел
▁надви
▁современные
▁Серебря
▁отлича
▁злости
▁Sh
▁тайной
▁признал
▁Мерт
▁расположены
▁спасать
петит
▁освободи
▁ученый
▁тьму
▁дистан
▁умудри
▁Эсто
▁просили
▁ближайшие
бает
▁сумма
▁орган
▁Болга
▁мега
▁накопи
▁капю
ёмся
▁свободен
▁Анну
||||
▁легендар
▁Каре
▁редкие
▁доброй
женность
▁свидание
▁близкие
▁Луны
▁Марка
▁Мишель
▁предупредить
▁короткое
немногу
▁Впоследствии
зантий
гнулся
нн
▁натура
▁поиска
▁торговли
▁have
▁нервни
нятся
▁лень
▁ракеты
icht
▁запечат
▁Ощу
▁Стару
▁Стоп
▁троллей
ждавшись
▁начальство
гивал
▁встает
▁физического
тиру
▁ткань
дсказу
▁Сил
▁ph
▁Зоя
▁105
▁прихожей
▁рыцарь
▁услуг
льник
▁царе
▁Федераль
▁собеседник
рота
▁умеешь
▁потолка
▁прозвучал
▁содро
▁шара
▁библиотеке
▁переко
▁пальца
еньку
▁Казан
▁Поле
▁роде
▁ученики
▁каждые
▁Тимофе
чица
эля
стьем
▁заботы
▁делаете
ститься
▁бессозна
▁моменту
▁Львов
▁виновато
▁сука
▁делай
▁подруге
▁технологий
▁Вай
▁персонажей
▁воню
▁оше
▁вздра
сено
▁приблизился
▁дотя
▁коллектив
алах
▁дизай
▁адвокат
▁девица
▁крепче
▁87
курс
▁зерно
сфера
▁охоту
▁сопровождении
▁искусстве
▁яи
▁артефак
▁копы
▁долгих
▁диско
▁признаков
▁мино
▁полноцен
▁нозд
стились
ватории
▁салон
▁близне
▁кинулся
▁ноль
▁кружку
▁Баку
▁недовер
▁творения
▁упро
▁некро
▁свист
▁непрерыв
▁вздохнув
▁аппарата
▁духу
▁нуждается
▁подза
▁Деревня
▁шле
▁открыта
▁тише
▁добира
▁следил
▁Население
▁великие
▁диплом
▁двадца
▁станцию
▁перевел
▁горели
▁приятный
щимися
▁пасть
▁align
▁народных
▁создает
▁гостинице
▁экономической
кину
▁оте
▁Европу
без
▁танков
тения
▁относился
▁Ним
▁колонии
▁футбол
▁Девушки
дт
▁Счастли
▁болезней
▁техника
▁пули
▁спон
▁исполнение
▁Ким
▁диалог
▁Позднее
▁страной
дович
▁компро
▁обратном
▁Любой
▁мисс
▁Зени
▁подобной
▁продолжают
▁социального
▁государством
▁сеан
▁молиться
▁карау
ившись
▁стенами
▁провинци
▁меняет
▁романе
▁присутствия
▁ботинки
▁общины
▁ненавижу
▁казни
▁уйдет
▁перенес
▁труб
▁Светка
▁государстве
▁Площа
енького
нины
▁доверять
дача
▁полум
дорова
▁наблюдала
▁отго
▁Юрия
зацией
▁Плато
▁событиях
▁Повто
▁узнаешь
▁колдов
селе
▁Лиз
▁вздыха
▁доброжела
▁застыл
▁мышцы
▁супруги
▁фашист
▁придумали
▁усталости
▁поздрави
▁заставило
▁финал
жках
▁требуют
зят
▁пани
▁Блин
ано
▁входили
▁кулаки
▁рассер
▁наказы
▁военную
▁рома
▁запис
водство
000
▁останавливается
▁свободный
▁старое
▁обая
▁подвал
▁Звезда
▁благодарности
▁Доба
▁раздум
▁МЫ
ek
шники
▁грозит
лк
бии
▁лекарства
▁влево
▁добрались
▁повоз
летие
▁привычке
▁революция
▁размно
▁историк
▁хлопо
▁побережье
краси
▁изобрета
▁Говорит
▁грибы
▁хозяином
берга
▁нравилась
▁жертва
▁Ордена
▁хороша
▁ind
пп
▁мешало
ционеров
▁Моё
▁наступит
▁Меди
восто
▁выпле
▁ресурсов
▁считаешь
▁неизменно
▁Алма
▁крепкий
▁Судьба
▁теплом
лык
жденно
▁Лай
▁Огонь
▁приключений
▁мозгу
▁лодку
▁Силы
▁скажут
▁заплакала
▁Всевы
▁волной
▁коде
▁тонко
▁трамвай
▁Алена
▁повторить
▁читали
▁Sou
▁живописи
▁доклад
oll
▁Брод
▁Министерства
▁Элли
▁путей
▁тель
▁однозначно
▁вреда
▁свадьбу
▁преем
теть
дётся
▁черте
▁Белоруссии
▁афи
гена
▁пользова
▁правый
▁дрем
▁пристра
▁рассея
▁судо
▁задания
▁пытаться
▁фель
▁160
▁спят
▁клин
▁Patr
▁военным
▁ато
iew
▁говорилось
▁Ph
▁Недавно
▁помогали
▁млрд
ренного
▁удачи
▁премию
▁устраивает
▁Сот
▁заслуги
шами
жденный
▁морали
лясь
▁уступ
▁Заслу
▁вод
▁чемпионом
▁небольшом
МЕР
▁беремен
▁Опера
▁ная
▁публику
▁заша
ступая
▁маленьком
▁Клав
▁подпись
▁потребно
рилось
▁собор
▁Мимо
▁связей
▁Валер
▁втя
МЕН
▁виноград
▁доля
itch
▁случалось
▁днями
▁Пес
▁принципы
хен
▁соеди
пытно
▁ути
▁Горы
▁находил
▁лучшему
▁умение
▁фей
рян
▁шкафу
▁внешность
▁психологии
▁простая
здания
▁левый
еву
▁Антона
▁снисходи
▁уважения
▁подсо
▁термо
▁клави
▁деятельностью
ныр
▁Гитлера
▁исторического
▁контексте
▁малейшего
▁вызвало
стань
▁катастрофы
▁становиться
▁хором
▁Шах
▁студент
▁заходит
дясь
▁технических
▁Красного
▁помнила
▁дневник
▁поддержать
▁Пойдём
глая
▁судьбой
▁Фонд
▁требовал
▁достигну
▁Фрей
▁вынул
▁амби
▁Ами
▁еда
▁Музыка
▁имущество
▁зверей
▁данное
▁коснулся
▁подбород
нде
▁вспоминаю
▁прижа
▁нано
▁богом
водства
▁миссис
ife
гне
▁тяжелой
НОСТЬ
▁благосло
▁космонав
▁деревьями
▁отмечает
▁маску
▁любимых
▁мягкий
▁пойма
▁Вени
▁зрение
▁родном
НР
▁проплы
lic
алыч
алист
крой
▁игри
▁недоуме
▁плать
нутых
▁Александру
▁объединения
▁получ
ПИ
▁столиком
▁Черный
ier
▁тарака
▁прочего
▁обойтись
вою
▁следователь
▁ага
▁контин
▁конкурса
▁устали
▁Дочь
▁зано
▁гам
▁Девчон
▁Выйдя
воя
▁обещала
пление
▁заключил
▁орудий
▁Хам
тельному
нишь
берта
▁выходила
▁Успокой
▁неисто
▁лиги
▁ударила
▁ножки
▁Макса
надцатого
▁Третья
▁торо
мышлен
▁переве
▁Западе
хватили
▁закурил
формули
▁мошен
шешь
ждаю
▁Информа
▁Калинин
▁задачей
▁er
▁аги
▁Боро
▁отличаются
▁различными
▁старших
▁тьме
▁спрятаться
▁резино
миль
▁ладонями
▁продолжения
▁расстраи
мак
▁сегодняшнего
▁ночного
енькое
▁короткой
▁спешил
▁преувели
▁происшествия
▁per
▁существенно
▁отставку
▁возглавил
▁танцы
▁виделись
енькую
▁Инна
▁Объя
▁Некото
▁билось
▁Витька
▁Мах
▁санитар
бр
▁Граф
▁средствами
▁медал
▁LITE
СУ
▁послушать
▁добрых
▁уточнил
▁желающих
ings
▁Представи
▁сердито
▁сомневаюсь
▁LITERA
▁сул
▁отвечаю
▁Пит
▁бросает
▁коней
▁придвор
▁запры
нялась
▁осме
▁Джейн
▁ОД
▁декла
ктования
товая
▁РАН
▁поколений
▁Румы
▁нормы
бют
▁82
▁тёмно
поля
▁благоприят
▁простое
▁can
▁непредсказу
▁предводи
нея
▁аму
▁образован
▁специалисты
▁висели
▁белорус
стренько
▁правди
▁физ
▁двоюрод
▁Шекспи
▁использует
▁слуги
▁отчаяния
▁Андрею
▁чистая
▁улет
▁лицами
▁получали
▁подол
альна
▁заплани
▁поощ
▁вяло
▁танцев
рело
рованием
▁мышь
револю
▁полосы
▁хозяйки
рево
amp
▁комитет
▁вычисли
▁выросла
▁тёпло
▁чужим
▁компаний
▁общую
▁pan
▁великая
▁мигом
▁скорой
▁могилы
▁свидетельствует
▁приятное
▁наиболь
▁Максима
itt
▁захваты
▁посоветовал
▁убивает
▁завис
▁враждеб
▁умные
▁лесом
дием
▁Саль
▁Круг
щённо
▁извер
oth
▁одиночку
цара
▁человеческая
гинал
▁оск
▁була
▁санато
▁мыши
▁бабки
рику
▁авантю
▁отру
▁составляло
▁раннего
▁контей
▁док
тях
▁задыха
▁пропала
▁страстно
▁типо
▁третьих
▁беду
▁Франция
▁родине
▁Сом
▁устроился
▁духи
▁элемент
▁утк
матери
▁метео
▁поху
▁слой
▁лат
▁праздники
льком
▁1880
47
▁мертвых
▁прию
▁ликвиди
лн
▁79
▁экономического
зывает
рованно
▁will
▁упали
▁объеди
▁теплый
▁Неба
▁заставляя
хватило
▁внешний
▁джу
▁опазды
▁штурмо
▁заработать
▁Пастерна
▁медведь
▁небольших
▁сборник
▁военнослужа
▁тихим
▁пригля
мского
▁школ
▁мелко
▁1912
▁НАТО
преде
▁вулка
▁Сав
▁губу
▁чемода
▁каб
▁Забы
▁страданий
имовер
жайте
▁условно
▁рези
▁орудия
▁Лика
▁царства
тость
▁высе
▁отказались
▁брас
▁потянулась
▁испе
▁Защи
▁одеялом
▁деревянный
▁витри
▁быстрым
▁обвини
▁составляют
▁рассматривал
▁сельсовет
▁бывшие
▁неров
▁Мел
▁отъез
▁епа
▁нижней
▁прок
▁отсутствует
▁Эдуард
гона
▁паузы
▁висел
▁средний
▁вечности
вляют
▁Мужи
провод
▁Славы
▁Пути
▁толкнул
▁противник
▁Жал
бурга
щееся
▁весть
▁интересный
▁году —
▁обоб
▁Вклю
▁83
▁земного
вию
ара
▁1916
▁пистолета
▁Великая
▁We
▁яростно
▁африкан
na
▁фонари
▁захватить
мела
▁обменя
вье
▁губах
▁фельд
▁кадров
▁оставляет
сера
▁сугро
▁нужное
▁ПУ
▁Кля
▁about
▁Хороший
нус
▁научные
▁источники
▁похода
▁Тед
▁куби
▁зависимо
▁жгу
▁разруши
▁кинжал
▁отпустить
▁Вашинг
▁вокзал
▁комнат
▁темных
ждаясь
▁взи
▁Внут
▁Нали
▁отобра
▁конфет
▁возвращались
▁продолжалось
▁слабый
▁La
45
щуюся
▁утрам
▁прохожих
▁заявления
▁столб
▁Стихи
▁зае
тивную
▁мине
▁рен
▁склон
▁аварии
▁возникают
▁найдут
▁упоминается
▁полей
▁чтения
▁гармонии
▁Бет
▁сроки
▁ноге
нгви
▁Золотой
летело
▁Королева
▁разобла
▁религиозных
▁бутылка
▁свадеб
▁матри
▁ненорм
неслись
▁стихий
▁Белару
▁Димка
▁отвернулась
▁сказы
▁Прем
▁предви
▁Дура
▁обувь
▁чётко
▁мох
▁почёт
▁тарелки
РЕМ
▁подкра
хоза
ther
▁налил
▁гет
▁повторять
▁пап
▁предве
▁слаб
▁арестован
▁происхождение
▁стрелы
▁Пода
▁конверт
▁проло
▁сыновья
▁красивую
▁несут
▁моложе
▁дойти
▁Богороди
стив
▁Дак
▁выполнения
▁коря
▁украшения
▁cont
▁фре
▁подвале
▁реакцию
▁пятнадцати
▁главную
ЖА
▁ВВС
▁расы
▁поправил
▁размышлял
▁смей
▁старом
▁морского
▁поба
▁полетел
оо
▁недвижи
▁Пауза
▁позвала
▁делаем
▁Чемпиона
▁вожа
▁Море
▁барон
клом
▁Фео
▁некоторой
▁родом
▁воспитания
▁подтя
▁учёный
▁истинный
▁полон
▁Красный
▁льда
▁грохот
танной
▁Сцена
▁европейских
▁поддержке
нау
▁пенсии
▁острые
думан
ровок
дительно
▁гено
▁кампании
▁музыкой
нское
доз
▁вися
▁250
▁историей
▁половин
▁обвиня
▁маршрут
▁ноутбу
▁безграни
▁чемпионат
▁границей
▁залу
▁чаше
тельницы
▁уйду
▁будущих
▁сдох
▁Разум
▁пожилой
▁код
воры
▁объекты
▁проявляется
▁поют
▁проникнуть
▁позабы
▁молоком
фии
▁показались
▁ледяной
▁конструкции
▁постройки
▁аэропорта
снения
▁мосту
▁пьют
▁смеясь
пился
▁возникли
own
▁Мара
▁насчёт
СТВО
рное
▁растерялся
▁Астра
▁ошара
▁комо
▁ошибо
▁обиделся
▁замечания
▁Аэ
▁110
▁баро
▁цветом
▁выдать
▁установки
▁ООО
▁коре
▁Наше
▁старается
нать
▁просу
гг
▁древности
▁Вслед
▁Гром
▁Юноша
▁White
▁жалу
▁дефици
▁приглу
кладывает
▁Известно
▁Галакти
▁знакомая
▁уверенности
▁голосу
▁Part
▁телевизора
▁изменение
▁текстов
▁плод
▁принципу
▁нравился
▁ЧА
▁Группа
▁масштаб
▁Михаи
▁масла
ТЫ
▁nla
▁объясняет
▁перепол
▁сорат
▁заз
▁основная
▁обсуждать
▁смеется
▁пригласили
▁заснул
▁замечать
▁вниманием
▁color
▁городка
риях
читывая
▁штата
емость
▁видения
▁осуществля
▁чудовище
▁беззву
▁детек
▁sa
▁чужого
▁умерли
▁подобным
боли
▁кавказ
▁труднее
▁Сала
▁гостях
▁самоо
вием
▁Ольги
▁прогулки
▁Томас
▁Круп
▁состояла
дохра
▁мари
▁обстоятельство
▁отличался
▁бытие
▁тяжелым
ix
▁бездель
▁лук
▁Ивановича
▁Te
▁гармони
▁такова
биться
ничество
▁нетерпением
▁источника
▁присоединился
▁магнит
▁Бэ
▁89
фора
▁указывая
девшись
нги
▁готовя
▁советы
брод
▁Хло
▁платфор
▁зону
▁Возду
▁жидкость
▁Доброе
▁являлась
▁перст
▁успокоиться
▁захлоп
▁прише
▁призёр
▁ара
▁Вновь
▁Баль
▁фай
▁Лично
▁помогут
▁ЛА
▁встретимся
▁слепо
▁разгро
▁обдумы
▁мальчиков
▁Гле
▁воина
▁партнер
ka
▁разрабаты
▁желанию
тант
▁предметом
▁злые
вуд
▁меча
▁гений
▁молодежь
▁Австралия
▁бесчис
▁архитектур
▁выглядело
▁рассказов
▁Божьей
▁посмотрите
мяте
▁размы
▁определяется
▁командой
▁информацией
▁кризиса
▁жид
жков
▁Всеми
▁Наблю
▁принят
▁Лето
▁превратились
▁отдала
▁ислам
ганов
▁ЛЕ
▁предполагает
▁ухуд
▁подмигнул
▁визит
▁Цы
▁настроении
вело
вору
нило
тир
▁автоном
▁обго
▁Цеза
▁задать
образие
▁подружи
▁Авра
бол
▁несов
▁выходе
▁городке
▁Америка
▁уходила
▁вызвала
▁площадки
▁принятия
чивой
▁Столько
▁пласт
▁бескрай
▁куртки
▁навод
▁центру
▁посередине
sky
▁теат
▁расходи
стна
▁призыв
▁австрий
▁Фил
▁Медленно
▁руководителей
лис
▁пшени
▁подготовке
▁Восток
вшемуся
▁защите
▁мами
▁Запада
▁живи
▁Экс
▁хорошенько
рог
▁препара
▁ВКП
вак
шаются
▁Московский
▁помах
тащили
▁соревнованиях
▁понадобится
▁изре
isc
▁her
▁камере
▁войной
▁учились
▁Пин
▁толстый
▁живота
▁смеши
▁окровав
дией
▁порядку
▁краской
▁учителем
▁сознательно
▁уголовного
рской
▁множеством
проду
▁стили
▁товаров
▁Египта
▁компле
▁изв
▁заклинание
еньем
▁темати
▁растре
шалось
▁помогают
▁Собира
▁полночь
▁следа
▁съесть
▁нужные
▁обнаружить
▁размере
▁тата
▁умно
▁them
▁компли
сля
▁колеса
▁осознать
▁рождение
▁Аре
▁Следовательно
▁будущий
▁действиями
▁Зал
▁энциклопе
▁месяцы
▁толи
нды
▁дверцу
▁Алексеевич
▁добился
▁бод
рьер
▁огород
▁Плохо
▁предлагал
▁рекорд
▁Раздался
▁мемуа
▁попыта
▁полицию
▁Борисов
▁Фонтанке
▁и 
▁сыро
▁Колу
▁прико
▁Краснояр
▁вещах
▁засло
▁найдя
▁имущества
▁Остро
ровых
▁печь
▁археологи
▁бригада
▁допуска
▁развлека
▁начнется
cc
▁Разговор
▁приписы
▁невеста
▁ассоциации
▁запомина
▁охотни
струк
▁бессмысленно
▁Лондон
▁судна
▁вождя
▁130
▁дотро
▁тёт
ТР
▁Будешь
▁кудря
▁источником
▁громкий
▁Анастасия
▁Кирги
▁явлений
▁вечный
▁оборудование
просы
▁всхлипы
▁успев
▁Толик
▁назвала
ствующий
▁умело
▁Государственного
▁щен
ницам
сина
шкина
▁Фра
▁чувствами
▁Млад
▁куз
▁аппети
▁парламента
▁Гря
зки
▁представился
▁формули
ъю
▁внутренне
▁атрибу
37
рих
▁рисовать
▁неимовер
нками
▁обещаю
▁морем
▁тумане
▁поверхно
ansi
▁Col
▁обошлось
BN
▁понемногу
▁горел
▁наблюдали
▁Камен
▁сопротивления
▁бросили
▁поклонился
▁народной
▁древний
▁Людей
ЛЫ
▁Некоторое
▁рассматривая
▁районах
воено
▁Оре
▁отсутствии
▁составил
логия
▁поморщился
▁получше
▁проблемами
▁волка
▁Прощай
▁Дождь
▁программи
▁добычу
▁Похоро
лэ
▁пригласить
▁порядком
▁varia
▁лицем
▁чудес
▁потребности
▁подмо
▁хозяину
▁хлопнул
▁позволяют
▁системой
▁Хей
линд
▁Рем
▁Мысль
▁Русская
▁достойно
чившись
▁знай
▁мин
▁заворо
фра
phan
шенную
▁наименова
▁чтение
шееся
▁задро
▁осе
▁здравству
КС
▁терпение
льном
чивал
▁воспринимать
▁шты
▁убрал
▁созданы
▁сформули
▁реформы
▁теорию
▁Наро
рёт
▁Чика
ION
▁разобрать
▁пойдут
▁этни
▁успокой
▁аном
▁сценарий
▁нравиться
▁Вино
▁удостовер
▁перевоз
▁Казахстан
▁Васька
▁воспитание
▁летя
ленко
щев
моли
▁очках
▁Ап
▁священника
▁горла
алами
▁длинным
▁израиль
▁внуши
▁испор
▁горизонта
▁trove
▁зашёл
▁общие
▁нахмурился
▁ежеднев
▁ДНК
▁несли
▁памятника
▁175
▁Человека
▁нагре
равни
▁прочесть
▁повторила
▁флан
▁череп
▁Каро
▁скамейке
▁сбежал
дти
▁потянул
тиком
▁yes
▁обстановка
▁охотник
▁приступ
тинен
пари
энер
▁XVI
▁утверждают
▁никакие
▁награды
▁утверждать
▁подарить
▁носили
нено
▁Гена
▁баре
▁сыгра
▁клиентов
▁летних
▁вскочила
▁Одино
▁выдум
▁but
▁Того
▁Разо
▁Дал
▁крыльев
▁Свою
▁верхом
▁Ниже
▁Оч
▁картине
▁коше
▁длинных
▁сволочь
▁парази
▁слушает
звонил
▁эксперимента
form
▁пиани
▁выступление
▁перспектив
ркут
▁исчезло
▁курсан
▁структура
▁перего
▁роб
▁гуманитар
▁горизон
▁поезде
счур
▁лишнего
▁наплевать
шедшим
▁любимые
▁девчонок
спекта
▁Тони
▁Хро
▁конди
▁Рон
нимает
лло
▁выполнил
▁ряв
▁Основной
▁подготовку
ловича
▁Длин
▁бесшумно
▁Тэ
ЛАВ
▁разбере
ганы
▁батюшка
▁западных
▁уважаемый
▁Публи
▁конфликта
▁богатых
▁Зам
▁выбрала
▁негодя
▁целого
▁маслом
▁цивилизован
▁крупней
▁армией
▁расчё
▁ест
▁интересные
▁странице
▁Героя
▁Данте
▁Домой
▁прямом
▁крышку
▁вознагра
▁холм
▁глухой
хивает
▁запрещено
▁потоки
▁автору
▁Иду
▁защита
▁ВТО
▁Простран
▁оди
▁реформа
▁досталось
ссией
▁аппетит
▁Китае
27
▁объявили
▁облаков
▁подруг
здал
▁философия
▁прапор
▁банке
▁шестьдесят
ховой
▁Минут
руга
ковской
жег
▁праве
вавших
▁ухвати
▁Пару
▁затер
▁следующих
▁персонаж
▁литературу
шными
▁Шам
▁Литератур
▁глядел
▁краем
▁болгар
▁стремился
смыс
able
стерпи
см
▁знаменитый
▁побледне
▁избра
▁Помните
▁выбрали
▁старому
▁переходя
▁жалобно
танная
▁Лаза
▁улови
▁безупре
▁вопросе
▁табурет
▁приглашение
▁умру
▁чьей
▁голланд
▁Тишина
▁внутренние
▁собственными
▁завал
▁Ничто
▁маска
▁Пят
▁причудли
▁редкость
▁черное
▁скандал
▁преследова
станови
▁кач
ясни
▁боком
тавли
▁видна
ленному
▁такт
ванными
▁Дене
▁аза
▁Se
▁пещере
▁тревоги
▁коммун
▁нажи
▁полюбо
▁Вильгель
ma
▁потоком
▁Неболь
▁стиля
▁Услышав
▁иллюстра
ЦЕ
▁widow
▁навяз
▁сдать
рясь
▁иль
▁единственно
▁максимум
вком
▁перемены
▁матра
▁прихожу
луй
▁результатам
▁знакомой
▁коньяк
думать
жину
▁вечерам
▁Хель
ненко
ременное
▁дубо
▁процент
▁Фре
▁надела
▁космети
▁orphan
▁Воск
▁ориента
редить
▁Яку
▁состо
▁ISBN
▁сознанием
занные
▁позволила
▁оставь
▁двухэта
▁обрадовалась
▁представлены
erc
▁рефлек
▁злобно
▁положили
▁племя
▁Бывает
▁больни
▁распада
▁позиций
▁светит
мотрев
▁Начи
▁относя
▁дружбы
▁невыносимо
▁Ненави
▁главные
YU
▁руководил
бурге
▁ярче
▁новостей
▁бросив
▁навали
рью
▁Кварти
▁хар
▁Никого
▁побывал
▁Германию
▁Майя
▁ансам
▁подвиг
▁появлялись
▁чувствах
▁шедев
its
▁оставшихся
▁призрак
▁шансов
год
▁тётя
маг
ступив
▁потребность
▁щеко
▁холодильник
▁счастливый
▁врать
▁критери
▁Уважа
риста
генов
▁понятий
бот
зве
▁независимости
▁Mus
дье
▁колонны
чатся
▁Eng
▁официан
▁созвез
▁хрип
▁Необходимо
▁инфра
▁профессором
▁яму
▁полотенце
▁пускай
кивали
▁пела
▁кроко
▁несчастный
▁вероятность
▁осна
рога
левой
▁близким
▁лего
▁Сергеевна
▁рану
▁охрана
▁верблю
▁послать
кай
▁районного
▁пафо
▁распоряжение
▁Фила
▁предан
▁зажигал
▁хам
▁Тё
▁почувствовав
▁звучал
▁попыток
▁почитать
▁массовой
▁Фар
пий
▁возме
▁поглядывая
▁крутой
▁Сор
▁малыша
ЩЕ
говорились
кались
▁Фрэ
▁Глядя
▁висела
▁поляне
▁грозно
▁Кирилла
▁согласились
▁парадокс
▁пче
▁зона
▁терра
▁Смы
▁железо
▁уметь
▁нати
▁Норве
▁уголовное
▁любу
▁подбежал
леной
▁Свой
▁сче
нкой
▁княже
▁Фильм
▁модерни
▁конкурс
▁предположение
▁расскажи
▁Поехали
▁Корот
▁живешь
▁подразделения
▁едой
▁Св
▁Наверняка
▁подтверждение
▁мести
▁взаимодействия
▁Америку
▁худой
▁подверг
▁сообщества
▁предшествен
▁первоначально
▁Идем
▁мороже
▁поверила
видение
▁локоть
▁обещали
▁Ex
▁последствий
▁врагом
▁обрести
▁мур
▁вытащить
▁Зря
▁палатки
▁круго
▁лиге
▁православной
▁подойдя
▁Нидер
▁пещеру
33
▁клетку
▁трубо
▁ухом
▁прое
тическим
▁Чёрт
▁чистым
▁молодость
▁таков
алистов
гард
вывал
▁поистине
▁монахи
▁заместителя
▁автомобили
▁рекой
▁безмяте
▁разоб
жам
нге
▁обыча
▁Грузии
алеке
▁притих
припа
терей
▁американцы
▁Есени
мечательно
скивать
▁Sch
ike
▁обеспоко
▁трудов
▁решению
▁продажи
▁бега
▁сойти
лож
▁раскла
▁лечить
▁пью
илось
▁Артём
▁слуга
▁читаю
▁Pl
▁теплой
▁лучшая
▁батальон
▁Нер
▁серого
▁мгновения
▁решилась
▁МГУ
рень
делал
▁сопротивляться
▁Подойдя
▁Чудо
▁взве
▁состоялось
▁проблемой
▁гостиную
▁хорошем
▁Карло
▁Вики
▁чешу
▁произнести
▁Дор
▁серьезные
vel
▁возз
▁параллельно
▁опья
▁Матвей
▁воздействие
▁сворачи
▁фрак
дует
▁Полковник
▁отвеча
▁версию
▁проходить
▁гек
▁пропор
▁жертвой
▁книгами
▁Ото
▁награду
ваемым
ТЕ
▁писк
▁особым
пену
▁разработки
▁являлись
лики
▁пройдя
▁санк
▁довелось
▁зя
нна
▁смена
▁современном
▁выкри
▁Вали
▁упаков
▁независимость
▁наце
▁тракта
▁заснуть
▁сыграть
▁подумай
водят
▁специализи
▁Белого
калась
▁прики
▁лежало
▁летел
▁высказ
▁барах
рож
▁посадили
▁закончились
▁Поезд
▁зев
▁Волго
▁снай
▁заповед
▁втори
▁вою
fore
▁Васильевна
▁океа
▁преобла
▁Адама
▁насо
▁парик
▁Лос
▁республикан
▁сбрасы
▁снимает
▁заплатить
▁волнение
▁прах
▁Бак
▁агрессив
▁позвоно
▁духовно
▁вселен
исто
▁лицах
▁косы
▁иконы
▁Белорус
▁коробки
▁Аки
▁пружи
▁пятого
▁принимая
кторы
▁беспе
▁непроиз
▁внук
▁пользовался
▁чистое
▁малых
▁слабости
▁USS
▁вооду
▁национальных
танных
▁внутреннее
▁истинно
▁небесного
▁инер
▁кокет
▁утверждение
▁Шум
▁Ред
▁След
▁сбежать
▁взглядами
▁вда
▁фотоап
▁Малыш
▁защитил
делаешь
▁медицинской
▁чут
▁Христиан
▁Пей
RY
▁лечеб
▁валу
▁династии
▁уничтожения
▁легких
▁приходя
▁долгий
▁учительница
▁беседа
пились
▁машиной
онеров
▁VII
▁фактов
▁захочешь
страя
манта
▁Rec
▁областного
▁Словом
ствиями
▁1911
▁вызывали
▁страницу
▁Сена
чностью
▁вызывать
деи
▁Бле
▁мягкой
▁южной
▁мрак
любие
▁Храм
мита
▁картошку
▁держась
▁пассажир
вывает
▁баскет
▁бутыло
▁Суд
▁смеялась
▁нама
▁kn
▁уставилась
▁игрой
▁Рыца
▁долга
▁ Г
▁Горе
▁удивляться
▁Парижа
▁бази
▁заднем
▁чересчур
▁прем
▁блеск
▁утверждал
▁сбере
▁Француз
▁слыша
вающихся
▁Пове
▁разрушения
▁пыла
▁Сибир
▁отдам
▁AUD
▁Рима
▁вспоминает
ворец
▁Большого
тль
▁перека
▁бездо
▁русскую
▁аэропорт
▁Новые
▁стариков
▁ослаб
фри
▁скрип
рр
▁бежен
денный
▁попут
▁правосла
▁жалости
▁наступления
завод
▁челюсть
▁объятиях
▁командование
▁неприяз
сточки
▁трупы
▁быстренько
▁попробуй
▁открыты
▁ода
▁мастерской
▁закономер
▁организацию
▁Сергею
▁реабили
▁ознакоми
▁1907
▁трепе
▁назван
▁сравнить
▁держится
▁Test
▁Дама
▁лечь
стет
▁равных
▁сокров
▁летели
▁вдвоём
▁встречать
▁задавать
▁сфо
▁морда
▁отошла
▁Рэй
грамот
ёров
чёр
▁вдалеке
▁ФСБ
▁only
▁четвертый
▁танк
▁испытывать
▁Цвета
▁червя
▁соп
дней
▁Семи
▁широкие
▁расхохот
▁единство
▁AUDIO
▁разбираться
▁сломан
▁Удивительно
▁ОК
▁серых
▁темный
РЯ
▁Осталось
▁выросли
▁Юлька
▁завора
▁сошел
▁тоски
▁сделаешь
▁завла
▁будьте
▁эксперти
▁отлу
80
▁суммы
▁опуск
▁факту
▁зарплаты
▁прекрасного
▁исторический
▁грузи
▁лицен
вицы
▁идее
▁аэропорту
▁открытую
▁экономических
▁беспоряд
зни
▁Себя
▁необъясни
▁продукт
▁точек
▁привиле
жаешь
БИ
▁стараюсь
▁прекрасна
▁районов
▁поджи
▁примеча
▁Победы
▁постараюсь
▁когти
▁Британ
▁шор
риц
▁напоследок
▁мн
▁Перевод
▁спецслуж
▁некая
▁копе
▁Сказала
▁последующие
▁уходи
ors
иды
▁заболевания
▁собственному
▁собираешься
▁командовал
▁1900
▁тревожно
▁эльф
▁доставить
▁ган
▁пионер
▁Центральная
▁художественной
▁опол
▁восприятие
▁свидетелей
▁виру
▁расскажет
▁показания
▁возглавлял
▁семе
▁интенси
▁щит
▁актриса
▁принимала
▁Привы
▁налого
▁Директор
▁Мили
▁Каждое
▁возвращение
▁расстояния
▁верё
▁раздо
▁Пойду
▁деревянные
▁сбоку
▁ОА
▁получишь
▁построена
▁мусора
паль
ius
▁находят
▁Patrick
хнуло
▁panose
▁ожесто
▁единственного
▁самолетов
лости
▁оборудования
▁ювели
▁адмира
гаясь
▁Отчего
▁Красная
▁сирий
рующих
▁Дракон
▁лебе
▁апель
▁джен
▁драться
▁длинная
▁движу
▁Никак
▁пропустил
▁Коле
прово
▁вернемся
▁шра
▁духовных
▁озере
▁ЛО
сексу
▁присвоено
▁вспом
▁бегут
товской
▁Востоке
▁чугу
▁одиннадцать
▁адреса
▁затре
▁сестри
▁Внутрен
▁him
▁убийстве
▁Разре
рядок
шаем
▁боеприпа
▁дивер
▁Огля
ЬЯ
▁расположение
▁миллиардов
▁Каль
▁фура
▁минус
▁рванул
▁перерыва
▁ver
▁сыр
▁гуляли
▁звал
▁здоровый
▁бабушкой
▁красное
▁дополнительные
▁постоянной
▁прогули
▁выходной
▁лабирин
▁замечательный
▁бабушку
▁творчестве
▁Серый
▁построили
imon
▁падал
▁запы
льную
▁мобильный
▁составить
▁прижалась
▁ресторана
▁малой
▁рубашки
шт
▁org
▁летней
▁кушать
ЛОВ
▁стыд
▁натяну
▁необходимым
▁представлять
▁импер
рующий
▁интересная
▁Ныне
hed
▁заговорила
▁волную
▁стаби
теры
▁предельно
▁бюрокра
▁молитву
▁рабочей
▁Пон
▁предусматри
ждите
▁прито
▁скомандовал
▁Арсений
▁Федоров
▁подли
▁канце
▁образов
▁хрена
▁домини
▁даю
емыми
▁внешности
▁стоп
тиками
▁указания
▁опло
ненную
▁заде
▁фильмах
▁разницы
▁участь
дках
▁94
ппа
▁стихотворения
алисты
▁Спас
стяза
▁Счастье
▁бегали
▁Брази
▁настоящих
▁бутербро
▁аэродро
▁ярость
тиной
▁останусь
логов
▁Еф
▁Жене
▁коте
▁Ассо
▁Мсти
▁натвори
ёлся
▁усво
▁длинно
▁заседании
▁покорно
жание
▁небеса
▁легенды
▁Донец
▁присоедин
▁комплектования
▁волнует
▁численность
▁Мировой
▁масс
зного
▁цене
▁осколки
▁Хочется
▁контролем
▁Револю
▁Поэт
▁Петровича
▁лезть
▁Попыт
▁фара
▁Второе
iter
▁туго
▁Четвер
▁Сочи
▁продавать
▁Саму
▁Юпи
▁Аню
ришь
ormal
▁спотк
▁послышались
▁Славка
▁присматри
▁Европа
бое
▁Принцесса
зирует
▁Советский
▁прекрасным
КОЙ
▁понят
ология
ковала
▁стенке
▁проживало
▁вероят
▁Сына
▁умела
МС
▁Элизабет
▁кинема
▁поймешь
▁побыть
▁бывшая
▁приобрести
▁Олимпиа
▁оглядел
▁королевы
▁нефти
▁СТО
▁Сау
▁песо
▁обнять
▁монеты
▁помогло
▁совершенство
▁повесть
▁сфе
▁перо
▁глаго
▁космоса
▁колесо
ртом
▁Гости
▁смущенно
женицы
▁Варвара
▁вылетел
▁молния
▁заглянула
▁гей
рять
▁светило
▁крышей
▁косо
▁дышит
▁Йорке
▁операций
▁островов
▁Александров
▁отделе
ЗО
як
▁возвращении
▁кусочки
▁подъем
▁духовное
▁жизней
плек
▁прощ
AK
▁нестерпи
▁аварий
▁идите
▁Обязательно
▁частных
▁ласка
▁Bro
▁сложилось
▁успокоилась
циона
▁остальными
гара
▁настоящую
▁магнито
▁вытяги
чиваться
ihi
▁гордостью
▁должное
неет
▁лихорадочно
▁отомстить
▁родов
▁te
▁открытый
▁засвет
▁завершения
▁повстан
▁Энд
ark
▁практика
▁драз
▁Риме
ствиях
бать
▁конфе
▁кавал
▁болото
▁Благодарю
▁ведущих
▁обоим
▁клей
▁королевства
лёв
▁клетке
▁вызывают
▁садо
рованными
▁держи
▁социализма
летняя
яна
▁небесной
▁представляли
▁поверь
▁шаш
▁замужем
▁восстания
▁мобильник
▁сменил
▁юмора
▁попытке
▁воца
▁замя
oss
▁рыно
▁делови
▁ангела
▁составляла
▁давало
▁планов
▁верили
снее
▁падать
▁бойцы
▁signature
▁Сооб
▁лекарство
▁тоску
▁корреспондент
вишь
▁металлу
▁сплошь
▁перерабо
▁валю
▁Саши
▁пеше
▁ощущений
▁труды
▁пристани
▁покля
▁978
▁местным
▁сполз
▁дерьмо
▁помоги
▁позвоню
▁ток
▁Рано
▁ЗНА
▁пса
▁Оке
таря
ёрз
ствующим
▁столовую
▁несло
▁тумана
▁вти
▁отделении
▁Законом
▁Дэвид
▁урожай
▁пp
▁переро
▁отвори
▁Двадцать
▁right
ченность
▁держался
▁Моз
▁допусти
носится
▁исследование
ica
▁желудок
▁плану
▁Довольно
шаяся
▁специальные
▁довольный
▁Объедин
▁выглядели
▁прекло
▁Балтий
▁талию
▁пропустить
▁резкий
▁Сюда
▁целыми
▁написаны
▁жених
ционеры
▁приспо
▁герцога
▁епископ
рений
▁pitch
▁Существует
▁Альф
▁Празд
▁приезда
▁хаос
▁хрипло
▁построил
щенными
▁местность
▁падение
▁правильный
▁рождается
▁магия
рием
▁располагался
▁Христи
▁Сур
▁появлялся
▁венгер
дара
▁высы
▁Русские
▁спрашивала
▁собора
▁соседних
▁счета
▁оценку
▁Край
▁приняв
▁собствен
▁пляже
▁уяз
▁Иркут
▁современный
▁импро
▁Рецен
▁утом
▁противоположной
строение
граммы
▁стихах
▁800
▁забора
▁Соколов
▁задумываясь
▁пустую
▁плечом
▁атмосферу
▁теряя
▁шкату
ТОМ
делки
▁Рок
▁внутренним
▁вовсю
яло
▁generic
тёр
▁христианства
▁Боге
▁определенно
зовой
▁спрятал
▁условие
▁Кристо
▁идеально
▁основан
дое
просить
▁хлебом
▁ударить
▁манев
вязать
ренным
▁соответствующие
▁ланд
▁богатый
▁chars
▁Краса
▁THE
▁напрочь
▁Шел
▁угля
▁125
▁поменьше
▁захле
▁Гого
▁лучах
▁принципиально
▁стон
▁коктей
▁растерян
▁светлое
▁charset
▁черда
▁Первого
▁фолькло
▁журналистов
▁всякая
▁парой
зилось
▁Поначалу
▁Патрика
▁нефтя
▁кинул
совых
▁расходы
тизм
▁заведующий
▁часам
▁завтрака
▁грязные
▁Александровна
▁Понимаю
▁закрыты
▁дескать
▁папку
▁драматур
▁немецкие
▁холодные
памят
▁единицы
▁отрави
▁лекси
▁Леха
▁USSR
▁промолчал
▁ощущать
емому
▁живущих
▁швейца
▁Ленка
▁созданию
вающиеся
▁Предпо
поста
▁принадлежал
▁миссии
▁кабине
▁Ие
▁героем
▁заш
▁финале
▁посет
▁стря
au
▁140
▁ТВ
▁0001
▁клиент
▁клубы
▁ответом
▁лишним
▁позволило
▁колхоза
▁отбы
▁крыльцо
▁точности
пром
▁рассчитывать
▁дворян
▁Константино
▁храбро
▁чистые
огу
journal
▁достоинство
▁кивает
▁листа
▁дошла
тс
▁расшиф
▁плит
▁обож
▁сду
▁раненых
ровкой
▁Финляндии
▁карманы
бби
далёку
▁готовиться
▁il
▁интернете
▁ездили
▁повлия
▁Пас
▁трубке
▁приветливо
▁заказа
▁водоро
▁поща
▁листов
миг
▁занялся
▁поделаешь
▁действуют
▁землёй
полномо
▁Воспи
▁полагаю
▁халате
▁безбо
▁top
▁противостоять
▁вине
▁подала
▁ОП
▁женские
▁Председатель
▁погас
▁благодать
▁мелочь
▁горизонте
▁золотыми
чивости
▁Диони
▁описания
▁медсестра
▁стоящий
минал
▁дочку
внокоман
▁русскому
▁убийцы
▁скорую
▁крыло
▁звуча
▁предприятие
▁Закры
мса
▁найдется
▁Пов
▁инициа
▁некраси
▁дорожке
▁пляж
▁Софья
▁Сак
▁вчерашнего
▁Располо
▁ол
▁приезжал
▁Фей
▁брюнет
▁Запомни
▁Книги
▁здравоо
▁травой
▁способы
▁подавля
▁ранга
▁культуру
▁объять
▁цикла
▁stihi
▁Фонтанки
▁исполнять
▁заим
▁земных
▁требовать
▁полом
▁останутся
тушка
▁грузин
▁прикосновения
▁переимено
▁взрослый
▁тексте
▁подтол
▁For
▁фотография
▁пресе
▁Приз
▁членами
▁течении
▁влюбился
▁спохвати
ловой
роси
▁успехи
▁холодная
▁пута
▁корень
UME
▁царю
▁Проко
▁психиатри
▁противников
▁навязы
▁шоки
стилась
чённо
▁Толстого
▁али
▁называемые
▁мобили
▁изучение
стем
▁Парни
▁соедини
▁подъезде
▁ячей
▁подполковник
▁объектом
▁лучшую
▁Лида
▁Исла
▁самолёта
▁работах
▁написана
▁кура
▁неинтере
▁one
▁преступлений
▁ярких
▁эвакуи
▁императри
▁щель
▁Челя
▁Начал
▁древе
▁прикрыл
▁Андже
▁Георгия
▁пользы
▁жилья
▁юмо
▁нехорошо
▁Сказа
▁left
▁Нака
way
▁нада
▁страдать
▁пьесы
▁галлю
▁обычное
▁помощника
▁Творца
▁Алексеев
▁библиотеку
▁обладал
▁нелегко
▁сомневаться
▁служили
▁пьет
▁игроков
▁отвести
▁замолчала
▁тяжести
▁мучительно
▁сантиметров
▁хранили
▁Семён
неров
▁хана
▁Бю
▁Кат
▁допустим
▁стыда
▁судьи
чись
▁магазинов
▁совмести
▁носят
▁попался
▁угады
▁внешних
▁Можете
▁сибир
▁Як
▁попросили
▁закрыли
▁руководителем
▁ходом
▁поша
▁кандидата
▁охрану
▁успокоил
▁поселок
▁велик
▁Казахстана
▁скатер
▁допо
▁спол
▁постарался
▁престол
▁структуру
▁ожидали
думала
43
▁сата
▁прошлым
▁Сосед
тори
▁Can
▁Хотите
▁объедини
▁загла
▁заправ
▁дикий
▁ткнул
▁злость
▁Андро
▁0001pt
▁que
▁правя
▁сошла
тиво
ple
леная
▁известность
▁темнота
▁Глупо
▁livejournal
▁совершать
▁Семья
▁Природа
ЧЕ
▁Осторожно
▁детекти
▁изгото
▁кресто
ставлять
▁оппозиции
▁ad
▁Чувство
стический
▁смертельно
лиз
▁компенса
▁стадо
▁породы
▁опираясь
▁результата
сными
▁достигли
▁повернувшись
▁напиток
▁намерения
▁чувствовали
▁отстран
▁подписы
▁охоты
сион
▁слуг
▁беспокойство
▁длина
▁консерва
▁Шеф
▁глуп
▁признания
▁встрепену
▁блюдо
▁знаков
▁Гора
▁рассыпа
▁заполни
новок
▁лин
▁континен
яния
▁взлет
чествен
▁называемый
▁сохранения
60
▁Убе
▁сайта
SK
▁женских
▁сменить
▁истинное
▁вождь
▁мни
нках
▁матчах
▁нищ
▁строчки
▁Иа
▁стоящего
▁строк
▁Идите
▁осуществить
▁выгодно
▁монастыре
▁Ов
▁cent
▁жениха
маров
▁Проце
▁закро
▁камне
▁угрозу
▁Дарья
▁МАР
сины
▁155
▁открылся
▁провал
▁сигн
▁обходи
▁пение
▁физических
▁посетить
▁захотела
▁Поздрав
▁приема
▁лодке
▁кандидатов
▁нужную
▁переговоров
▁охраня
▁Свобода
▁спальне
▁мальчиком
▁высотой
▁Родины
▁ограничения
▁чёрных
▁лидера
лат
▁умрет
▁футболу
▁упрямо
▁попол
▁выставки
▁слабе
▁согласны
▁удалился
▁спешить
цио
пают
▁неду
▁убере
▁салоне
▁высокое
жане
пович
▁Девочки
▁Анфи
▁полезно
▁сурово
▁любым
▁лидеров
▁ребятами
▁сень
▁расслабиться
▁обещание
▁подслу
щание
▁кустах
▁Тыся
▁семьдесят
▁выскочила
▁толпой
▁Встреча
▁поет
▁зеленой
▁свадьбе
▁лёгкой
▁Военно
▁феномен
▁рядах
▁врачу
▁нетерпеливо
▁вспоминала
▁Поро
▁Варя
▁Горя
▁рыбо
мело
верие
▁произносит
▁алкоголя
▁Дайте
▁del
▁интересах
▁предыдущих
▁ДИ
▁отныне
▁соседнего
▁Испол
▁гриб
▁Труда
▁русскими
▁непрерывно
▁Мухам
▁str
контро
▁мягким
▁Таню
▁пузырь
▁почве
▁поединке
▁развернул
▁болела
▁восторге
lav
▁ведущий
▁трудя
▁сино
▁глубокие
▁химии
▁деталь
▁Зим
▁фигур
▁красоте
▁700
▁бандит
вёт
▁позиция
▁комиссия
▁оборону
▁нарушил
▁рестав
рующие
▁расцвет
▁первобы
▁расстались
▁ЖИЗ
▁заболел
▁>http
▁шестой
▁обращал
▁крупного
▁испытать
▁убежал
станно
▁Николь
ходятся
▁бота
▁серви
▁сделан
▁буквами
▁открытое
▁пойдешь
▁Воору
▁дров
▁фоку
▁Федя
▁унита
▁Майк
▁плу
ase
фикация
▁Врач
▁улег
жон
▁нера
▁учит
цкая
▁обладают
▁экрана
▁агентства
▁концепции
▁фля
▁росла
зится
мари
▁строительстве
▁запаха
▁трансформа
▁мелкими
▁экзамена
юрер
▁разбудил
▁побывать
▁спустились
▁невесты
▁застав
▁Оди
▁Уль
▁порта
▁оправда
▁расстрой
▁Лермон
гот
▁относились
▁югу
▁взбе
▁Tr
▁будиль
▁глазу
▁группо
▁режиссёр
▁Лёха
▁архие
ваемое
▁пустыни
скай
▁Награ
▁берегов
▁Ден
жливо
▁убитых
▁сказке
▁Варша
▁Сибирь
▁расче
▁Вселенная
слову
▁в 
▁Герак
▁беспло
▁падают
▁Эйн
▁муниципального
▁чеш
▁поднимаясь
▁Господу
занный
▁красноре
▁выстраи
▁тупик
▁испытание
▁пробовал
денное
▁ехидно
▁сохранились
шнее
▁догадаться
▁мил
▁норма
▁посвящё
▁Изабе
▁Тём
▁проиграл
▁неспособ
бн
▁элит
▁праву
▁расслаб
▁Швеции
▁артист
▁отозвалась
сяга
▁дождаться
▁посмотрю
▁освобождение
▁потока
▁Самой
▁бандитов
▁заключён
▁замерли
▁стремиться
▁Яко
▁применение
▁французской
▁посидеть
▁каприз
вете
тям
▁щас
▁дистанции
▁тще
менного
▁расследование
нома
▁ненавистью
▁узкой
▁логика
▁вернувшись
▁немину
рёк
▁переез
▁поворота
▁казаков
▁убедился
▁наслаждение
▁коопера
▁ежегодно
▁тренером
▁сюрпри
▁Интернете
▁дальнейшего
▁побре
▁Знамени
▁проектов
▁Коб
▁медведя
▁объяснила
▁прежнего
▁работник
▁line
вавшие
▁страхе
▁нарушении
ристов
▁Песня
▁идеологии
▁имеете
товом
que
неть
▁возвед
▁вагоне
▁узнают
висто
▁Эле
▁духовный
▁грусть
▁Посе
▁номина
▁постоянного
мовой
▁запомнить
▁закреп
тельней
▁пожара
▁соседнем
▁сие
▁схема
▁Адоль
гнан
▁Спраши
▁побережья
▁Георги
▁Сестра
▁рыжий
▁пульси
бюро
▁Вадима
▁припомни
ium
▁тропинке
▁синя
▁Улыб
▁лоп
▁ART
▁убивают
▁хреб
▁колесни
▁Нидерлан
▁понимаем
▁международной
▁91
▁Африке
▁разделить
▁подобный
▁часу
ky
▁посме
▁лба
▁отожде
▁обращать
▁назначил
тьев
меном
▁прича
▁чистую
▁погладил
▁возникновения
▁мировых
▁After
▁Стол
▁лав
▁проясни
▁Або
▁криво
▁Пусто
▁десятилетия
▁участвовали
▁основательно
▁грустью
▁жере
▁кв
▁ Н
▁вскрикнула
циан
▁представителя
ставляя
▁представлен
▁выстрелил
▁ошелом
▁запасы
▁итог
▁out
▁бегал
стаф
▁корточки
iet
▁лейтенан
▁отделом
▁нежные
▁неулови
од
▁дыхания
▁напряг
▁свободным
тале
▁полуно
▁недоуменно
▁обиженно
▁приятным
отечествен
▁отъезда
▁Главного
▁Африки
▁Иванова
▁повернула
БЫ
▁произошли
▁нашлось
▁возглавля
▁гордости
▁уснула
▁спецна
▁платят
нскую
▁Шли
▁дождавшись
▁пожалел
руем
▁цикл
▁эпидеми
▁проявление
▁отвед
▁зажа
резали
мию
▁творение
▁разумом
▁создавая
▁Ксения
▁пункты
хии
▁1908
▁Скри
▁прикиды
▁Демон
▁извле
▁нежности
▁Площадь
берусь
▁горячим
▁досу
▁NLA
▁соединение
▁лодка
градской
▁прелесть
▁родились
▁затяну
▁живыми
▁cl
▁промо
▁Вза
▁покинула
хле
ченном
▁кону
▁Тей
▁ссыла
▁сгла
▁абстракт
▁доказательств
▁полетели
▁острый
▁развернулась
▁скан
▁Порой
▁Уэ
▁предположения
▁ищи
▁работники
▁морально
▁Стивен
▁дое
▁напоминала
▁кончится
▁рубашке
▁ощутила
стических
▁растая
фами
▁прибре
▁перимет
▁юный
▁ковер
▁цити
▁Согласен
ругался
▁Ниц
▁временами
▁съел
▁пряча
грамму
▁обидеть
▁двигались
▁отстаи
▁достает
▁рассвета
▁Видите
▁возразить
▁подумали
▁Нэ
▁Венгрии
▁горлу
немо
▁пригласила
▁песке
▁врачом
▁магов
▁способностей
▁помешать
днее
▁аудитории
▁заподоз
▁обсудить
▁помощником
американ
▁считалось
▁проводила
▁стоимости
▁добром
суа
▁принадлежат
▁оценил
▁инквизи
▁гладко
стребо
▁смесь
▁полях
еньким
риата
▁крупным
▁скрылась
▁вступить
ition
▁ситуациях
▁обиду
▁мака
▁прогуляться
▁эры
гун
▁достигает
дками
▁сдал
▁свойство
ваемая
▁забере
▁установили
▁безвоз
▁мышление
▁книгой
▁катало
▁озор
▁пахну
▁длинную
▁насмешливо
слать
▁den
▁ночевать
▁депутатом
▁определенные
алки
▁Дорогой
▁цилинд
▁послание
▁заходил
шило
▁копо
▁застыла
сями
▁считаете
▁включа
▁брезгливо
▁потомки
orn
▁Демокра
▁Марты
▁прыгнул
▁покро
сному
читанные
скоп
▁Семь
▁поговор
▁безыс
▁исполнить
▁воротам
▁холма
▁As
▁медицины
▁Зв
▁солнечно
▁Эс
▁Габри
▁Либо
▁ровным
▁условии
▁намерен
▁чрезвычай
▁собираясь
▁мелкий
▁абори
▁ала
▁зависть
▁продуктами
дочка
▁биться
▁изнасило
▁астрономи
▁unh
▁поднимать
▁девят
▁отворачи
▁утер
выс
▁поспешила
▁пошутил
▁мыслить
стического
▁веран
▁фантастика
▁лит
▁новей
бив
▁крупнейших
▁Души
▁Григорьевич
▁приподнял
▁высказывания
панный
▁хвоста
▁выпьем
риков
utt
▁деревянной
▁оказать
пый
ссой
▁издал
▁либераль
▁вокзале
сает
▁каш
▁богиня
бавок
▁Идея
▁подушки
▁подопе
▁МЧ
▁бди
▁развиваться
▁ублю
▁назло
▁ешь
▁кладбища
▁провода
▁ослож
мотрела
иска
▁малого
гова
▁придти
▁сумра
▁национальности
▁Робин
стину
▁фотографий
ЖД
▁несла
▁гостиницу
рную
гряз
▁Рассказ
скаль
сообраз
▁нахожусь
▁переживай
▁двигался
▁безразлично
▁дата
▁экзамен
▁ВЛА
▁прямоуголь
▁Той
▁помогала
уу
▁неумоли
▁замах
▁похожим
▁капитал
живали
▁сати
▁POLI
▁Динамо
▁возьмет
▁презрительно
▁россия
▁товарище
▁Удар
▁попе
▁бассейн
▁ожидает
▁мероприятий
шенными
тоне
▁дождем
▁чёрного
▁долгого
▁архитектуры
▁милиция
▁бюджета
горит
▁Чо
▁фраз
▁матушка
▁походкой
▁Водитель
леров
▁придя
▁высота
▁четверг
▁венти
▁надеялась
▁высокими
▁числом
▁постучал
нином
▁важную
▁ввести
▁качеств
▁счастьем
▁ребятам
▁изменил
▁благодарен
▁удержался
▁грыз
тво
▁Росто
▁государственные
▁Готов
▁церемонии
пт
▁подозрения
▁сарай
▁приговари
▁частной
▁дорогих
▁футболи
чак
▁хорошему
▁удовлетворя
альны
▁пробур
▁Кори
сай
ього
▁определил
▁отменя
▁Крыма
сика
▁Жар
▁давным
▁монстра
▁сорти
▁длину
21
▁поднимался
▁долгой
ИД
▁жер
▁Пройдя
▁71
▁плачь
▁полит
▁брен
▁дополня
▁Сель
▁ответов
▁Киева
▁действительность
▁договориться
▁Арген
▁притворя
▁плохие
▁кром
рдо
▁вывали
▁начинаешь
▁магазины
▁разбудить
▁Глубо
▁Чехо
▁убеждения
▁позволили
▁Жили
▁шефа
нцев
▁теплые
▁изменится
▁Свето
▁учится
▁захорон
▁верность
▁окнах
▁распя
▁яблоко
▁Проис
▁сравнительно
▁расстаться
▁Михайловна
ристы
▁задуматься
▁дружбу
бль
▁круглый
ien
▁Скажу
▁писатели
▁unhide
▁тетрадь
▁рубля
▁Брай
▁игрок
▁соотечествен
TICS
▁салфет
▁сено
▁пожени
▁тяжесть
тине
▁учесть
▁Владислав
▁деревом
▁послево
▁Польше
▁сражаться
▁работо
▁спина
▁предполагал
бру
сох
▁незри
▁тонких
▁календа
▁224
▁LITERATURE
▁бьет
▁Звезды
▁копейки
▁тонне
▁раская
▁соображения
▁страдает
▁строили
▁просьба
▁бесконечности
▁Крыму
▁найдешь
▁спускаться
дант
▁нормальной
чаянно
▁ИМ
▁выкру
▁загра
▁браке
юк
чию
▁кончилось
▁чёрная
▁САМО
▁происходить
▁вже
▁POLITICS
▁Людми
▁ЧЕЛО
▁научить
▁предположил
▁Гим
ova
▁Oral
▁осведо
▁поляну
▁холодного
▁сложные
▁прекрасных
▁Мага
▁искры
▁поэзия
▁идеей
▁ране
▁формально
▁смыслом
▁трогать
▁раскрыл
▁единое
▁гиль
▁чист
▁Калу
▁прикла
▁шампанского
тони
фик
▁прилично
28
▁дало
▁погро
▁сюжета
▁проекти
▁потенциал
▁учебных
▁Su
жский
▁таблетки
▁чужую
▁граби
▁Картина
▁основой
▁Пото
▁крестьяне
▁165
▁НИИ
рался
▁Воздух
▁румы
▁полагается
▁перебро
сывая
▁свидетелем
▁единый
▁составлял
▁волки
▁ребенку
▁слабым
зовые
▁старики
▁технического
▁баллов
▁третью
▁шоке
▁неспешно
▁спокойный
▁оторвать
ньте
▁el
▁Родину
▁личным
стий
▁шепот
▁ставил
▁рисковать
▁Мужик
▁махнула
▁приятеля
▁Сове
▁Югосла
▁христианской
▁некую
менко
переда
▁доказательство
▁нормальные
▁перенести
▁Освобо
▁увидите
▁пеще
ism
льку
▁81
▁выразил
▁исторические
било
▁золотую
живают
▁академик
imonies
▁Деми
▁доно
▁окружающим
▁умная
▁Институт
▁ранения
▁хранить
▁необъ
затор
▁запря
▁бесц
▁недоверчиво
ссен
▁нежный
▁двору
▁Чарли
▁огромном
вость
▁отверстие
▁мужество
▁запахи
▁тонкая
▁диплома
▁фот
▁поймут
▁чиновники
▁отой
▁доложил
▁полицейский
▁общ
▁Гю
▁синг
▁малость
▁покажется
▁дожде
▁общении
▁еврейской
▁отклады
▁определенной
▁ведущей
▁Testimonies
▁потерпе
▁окошко
стела
▁Письмо
▁замор
▁надеть
мее
миная
▁победитель
шн
▁перспективы
менных
▁восклица
▁назой
▁Легко
▁нападение
▁вдвое
▁тоской
вающийся
▁Мюн
▁виноваты
▁подбро
▁Белла
▁проста
▁опасаясь
▁лучей
▁колё
▁выступили
▁Ответил
▁готовый
▁прозвище
▁съездить
▁Кати
▁полуостро
▁погулять
▁балла
▁весну
▁смутно
48
▁глиня
▁проже
▁жди
▁встречался
▁комок
▁любопытства
▁потеряв
▁тракти
лте
▁византий
▁Убий
▁Наоборот
▁извлек
▁слома
сится
▁вкра
▁переоде
▁СКА
ЕТА
▁требовали
▁христиа
▁представителями
вного
▁Соответ
▁веществ
▁увен
вось
▁Кр
edia
▁указала
▁аплодис
▁нефте
▁посторонних
▁российские
штейна
▁расте
зана
▁размеры
▁идём
▁бру
▁посёлке
▁широким
▁королю
▁гусени
▁просып
▁течения
▁серия
▁человеческим
▁Какую
▁Рот
▁кей
▁les
плина
▁Арно
чатый
▁отряды
▁железа
▁настоящем
гности
▁призналась
▁Сашу
▁нарочно
▁Константина
шние
▁эмигран
▁позволяла
▁знакомое
▁мечет
▁саха
▁пройдёт
▁внед
▁бокам
▁отбор
▁каменный
швили
▁Солженицы
▁житель
▁поспать
▁еврейского
▁Бит
▁мунди
▁советское
▁мелькнула
▁держат
▁ночных
▁оппонен
▁сходство
▁военное
нится
▁папе
ШЕ
▁науку
дину
ёме
МАН
▁учетом
▁Веры
▁Обер
летних
▁Тема
▁пейзаж
▁тети
ровым
▁экспре
▁специальных
▁кафедрой
▁навестить
▁гало
▁Бесс
▁счётом
▁Чарль
▁взялась
▁акций
▁государству
▁назем
▁небось
▁руководству
БУ
▁Медведев
пты
новали
▁Свои
▁чувствуют
▁On
▁ангелы
▁спишь
▁Маха
▁Евдо
▁трещи
ube
лагала
▁поселка
▁оцепен
▁обратила
▁пивом
▁болота
26
▁нежность
▁житей
▁Дель
евичу
▁позволял
ренная
▁захватили
▁свободных
тта
▁списка
▁изображением
▁собрали
▁горды
ёшься
▁наслаждения
▁издали
сери
▁супруже
▁нейтра
▁Следует
ткими
▁тщетно
жор
▁сожале
▁шепнул
▁гном
▁значительной
▁трусы
▁вона
▁незнакомца
▁приближается
▁продал
▁дочерей
▁носо
▁Средизем
▁коснулась
▁совершенства
▁справо
▁ножи
мазо
чься
▁участии
станция
▁запрет
▁утверждения
▁заулыб
▁заботливо
▁скажете
▁свалился
чивых
▁рассуждать
▁завести
лины
▁свадьба
▁обморок
▁поэты
▁сорвался
▁кря
▁1904
▁обеими
▁карьере
▁пораз
▁союзников
▁угрозой
дового
фир
▁вернётся
▁коньяка
▁отдельной
▁крупными
▁мыть
▁возмутилась
▁могиле
скоро
▁приготовления
жне
▁каменной
▁уничтожил
▁поведал
▁лишения
▁Никакой
▁Национальной
▁организовал
▁тревога
▁повела
▁широкую
▁узел
▁безоби
пую
▁пуля
▁составила
▁олицет
▁кадры
▁числу
▁первич
▁приходило
▁вмешался
▁пасти
чьим
▁грусти
тащила
▁одетый
▁росси
▁военном
▁правдой
парти
▁принадлежности
талось
▁спешно
▁запе
▁Джесси
▁публици
▁тянуть
▁Посмотрим
▁объявила
▁реального
▁самосо
ЁН
▁Хлеб
▁отчаяние
зум
▁Последняя
▁посещения
▁спальни
палась
▁большеви
▁поселке
▁творческой
▁поиграть
▁серьезным
▁бокс
▁мешал
▁сомнение
▁разыгры
▁тряс
port
коен
▁VIII
▁входило
▁ерунда
▁оглянулась
▁судей
▁пустыми
▁внука
▁включить
▁мелодию
▁страшнее
▁Поста
▁напали
▁выстрела
▁различия
панию
▁Далеко
▁собраться
▁Одной
▁убила
▁получилась
варе
▁сак
▁штам
▁уголок
сиком
▁страницах
▁закрыт
шар
▁Физи
▁просят
▁лифт
▁ребёнком
▁выполнение
живала
▁наса
▁демократи
▁неприну
▁наследство
▁небесных
▁Жак
ADA
▁консульта
▁1909
▁вздума
aus
▁Система
▁украинский
▁Русского
▁громким
▁переворачи
▁привычки
▁формой
стают
нических
▁Посмотрите
полнено
▁ПЕТ
шан
29
▁Зави
▁сумели
▁грохотом
испо
▁вывед
▁известная
▁Щу
▁мучени
▁Аза
▁эше
ляй
▁прови
▁жалеть
ИК
▁функцион
▁готовности
▁мастеров
▁колдун
ээ
добие
▁Волосы
▁закрытыми
▁внешним
▁шок
▁159
▁вырвался
гнет
▁привычка
▁Горького
▁недостатки
▁порос
▁ванну
▁покажет
▁несёт
▁угле
▁разрешил
▁чашки
▁состоится
▁суети
▁напомнить
▁распоряжении
мыслы
▁Страшно
▁звонила
▁Ленинграде
▁пила
драх
▁поляр
▁шизо
▁забв
▁испытывает
▁зеленых
▁попробую
▁отдельный
▁живём
ade
▁нежи
▁107
▁описывает
▁Орден
▁зову
▁артиллерии
▁зеркалом
▁Македо
▁безжиз
▁признак
▁Рыба
▁скопи
▁адмирал
▁Vic
▁семьёй
▁Внизу
▁брала
▁деталей
▁социальные
▁отчу
▁милицей
▁ресурсы
▁Электро
▁ухожу
творя
▁огрыз
▁капитаном
▁Бран
ряет
▁глупый
▁преподавал
▁волоса
▁рассвете
▁участки
цю
▁инженера
▁истинного
роны
валов
яя
▁Льва
▁фонд
▁дошел
▁критику
▁Ся
▁Архангель
▁застен
▁приготовить
▁шумом
▁едят
грыз
▁занес
▁разной
▁Марины
нутую
br
▁отмы
▁ассоции
▁начальнику
▁принцессы
▁недовольство
▁прежние
▁каменные
▁вставил
▁основного
▁ягоди
▁блондинка
▁пользовались
екто
▁XII
▁близок
▁испытал
▁убью
▁Жор
пым
▁появлением
▁создают
▁Рена
домо
▁Яну
▁режиссёра
▁забуду
▁смят
дист
▁полдень
▁россиян
▁компонен
▁естественным
▁восхити
▁схватить
карь
минало
▁соединения
▁ками
▁возобнови
▁полутора
▁главу
▁сериала
▁страхо
▁Br
▁чье
▁серьезный
ндра
▁джентль
▁квартир
▁министром
▁братьями
MAN
▁прокричал
▁верой
▁ГОЛО
▁низкий
▁молчания
▁светлой
▁Село
▁раскру
▁коллектива
▁Погоди
▁поцеловать
▁Харак
▁объятий
▁Психо
▁блюда
▁очере
▁сообразил
▁яркими
▁поменять
▁Степанович
▁тянется
▁командиров
▁лже
▁термина
▁инопланетя
ater
▁завоевал
▁Мели
▁Франсуа
▁Десять
▁отсутствием
▁сложных
▁спустилась
▁бумаг
плен
▁заез
▁проверять
▁theme
▁хмуро
снуть
▁Рели
▁Ковал
▁космических
▁привёл
хта
▁Указом
▁руководя
▁ангелов
▁цеха
▁Стоя
▁Франци
▁врагами
▁Озе
▁Мура
▁планах
▁Рос
▁называлась
ньо
▁затормо
▁Разви
роз
▁пилот
пери
▁Смит
▁родную
▁середину
▁сделают
снув
▁непостижи
▁доверия
шедшем
▁Водо
▁фонарь
▁краях
▁легли
▁тракто
▁Куба
▁мебели
▁картинка
▁негде
▁Мэй
▁спуститься
▁имеющие
▁Братья
▁страшным
▁извин
▁подни
▁диалекти
▁туристи
▁диапа
▁сходи
▁art
▁лифта
▁морков
▁вольно
▁некоторыми
рг
ven
тимся
▁стенам
▁непра
▁Художе
▁кашта
▁борта
мыслить
▁переполня
▁дальний
▁истине
▁угроза
спорт
▁пострадал
▁взвода
▁No
▁скрыться
▁Расскажи
▁обмануть
▁касс
▁Получив
▁Шут
▁моди
▁необычайно
▁страхов
▁мягкие
▁женское
▁лингви
▁Боря
▁Юрка
▁Серь
▁ближайший
▁инструменты
мится
▁молодую
▁математики
▁дню
▁Успокойся
▁Порту
жба
▁установил
▁грязной
▁узнаем
▁Повели
▁Практически
▁обязанностей
▁нанести
▁Снег
▁Сотруд
▁сведений
алоги
▁режиссер
▁стрелковой
▁метафизи
▁захватил
рьи
▁обал
▁прочита
▁мгновенье
EN
▁бешен
▁красную
▁добросо
▁давления
▁полке
▁бока
▁обитателей
▁бедный
▁Девя
▁присту
▁Серёжа
▁превратить
▁обществом
▁перчатки
вающими
▁Тимур
▁орал
▁плиты
▁неволь
▁отбира
▁пламенем
▁щед
нейшие
▁влюблён
▁увидим
▁знаменитого
▁связя
▁расследования
▁рукописи
▁переехала
▁МЧС
▁розыгры
▁пыл
▁CAN
ваетесь
рицы
▁Берлине
▁реальный
джу
▁дикой
▁ЖЕ
▁седой
▁трубу
вляли
▁шепчет
▁подскочил
▁разрушить
▁ям
▁товары
▁ночами
▁удовлетворения
▁спокойнее
▁Татар
▁пластма
▁безопасность
▁дайте
▁разряд
▁Позна
▁обесси
▁Ale
▁клеток
▁Гоша
▁купа
▁младенца
▁подарила
▁тайне
гивали
▁слоем
▁Запи
▁люк
▁несчастье
▁одними
чёв
▁круже
▁Тьфу
▁Собо
▁осуществляется
▁соревнований
▁Самые
▁светлый
▁дебют
▁фаса
▁ставили
▁выпал
нкими
▁набрала
▁течет
▁отмахнулся
▁Эмма
▁показатель
▁variable
▁ища
▁кале
▁Дедушка
▁скором
чивое
▁тонкую
скло
▁деревень
▁уверенностью
▁зависти
▁сверст
▁сооружения
▁получение
▁фли
бала
▁тренера
▁застал
▁ссылкой
▁схватился
▁поддерживает
▁инициативе
▁Участник
▁многократно
▁рукава
▁шансы
▁процедуры
▁стоишь
рующей
▁осознание
▁установлен
▁167
▁считался
▁варвар
▁Виш
▁империя
▁забором
гау
мило
▁почесал
левич
▁цивилиза
▁лестница
▁погибла
▁перила
▁жестко
▁обществу
▁примером
▁раздраженно
▁дожди
ound
▁Буха
▁событиями
▁водка
▁задей
▁драки
▁подростков
▁пациент
▁кукла
▁неподалёку
РАИ
▁серий
питься
▁двигателя
▁сумасшедший
▁специальный
▁кашу
реве
ЮТ
▁Изна
▁сложный
▁распозна
▁бутылок
▁ив
▁вклады
▁кулаками
▁свернул
▁Трое
▁портал
▁спокоен
▁прочно
▁материали
▁ирони
irt
▁Юр
▁летят
▁входной
▁нити
▁КОН
|||||
▁единства
▁удобнее
▁Кондра
▁потерь
▁Зара
▁трои
▁желательно
летку
▁примеры
▁ДЕ
▁Социалистического
▁Иерусалим
фея
▁мальчику
▁заседания
▁мотив
▁девяносто
▁смутился
▁пур
▁уна
ВЫЙ
РОЙ
▁семейной
нимать
шном
▁успехов
▁сру
ндер
▁Уайта
ys
ностей
▁Кейт
▁глупые
▁палку
▁методов
жденных
▁колосс
▁друге
еням
▁лако
▁сочинения
▁Кав
▁возможные
▁страдал
▁отпускать
▁фур
▁архиеписко
▁бр
▁развивать
▁Самая
ram
▁Захо
▁взялись
▁разнови
▁нехи
рыня
▁любите
▁батареи
▁Серёга
▁лапами
▁прыгать
▁атмосфера
▁преступников
▁снежи
▁зашевели
▁бросать
▁жалость
▁умнее
▁преслову
▁соприкос
▁ Б
▁догадалась
▁Елизавета
gt
блоки
▁недоумении
▁объяснял
дельно
▁административно
▁Косми
▁Держи
▁выдержать
▁Рау
▁Путе
▁пропали
▁решении
▁дати
▁палубе
▁НЛО
▁имеющих
▁уничтожение
▁организу
▁other
ничества
▁счастливые
▁взвиз
▁идо
▁напоминали
щавшись
▁засту
▁любимое
▁смеются
▁помет
шуюся
▁жажда
▁вправе
▁рисунки
▁вызывал
▁собрала
▁эхом
▁торопясь
▁используются
▁мосто
▁раску
▁спортивной
▁капитала
щенную
▁придуман
▁старшая
▁русло
 мм
▁владеет
▁напоминало
▁подби
▁жителям
▁позы
▁демонстративно
▁волноваться
▁базар
▁свидетельства
▁Оска
шенном
▁повз
▁домашнего
▁Новое
▁Сели
▁зерна
тавшись
▁способами
▁Центральной
▁основание
▁наслаждаться
▁подумалось
▁кисти
▁правителя
▁юношей
▁вылет
тащить
22
▁культурного
▁умирают
▁великому
▁очередная
▁свар
изо
▁высвобо
▁мемори
▁расц
▁Гав
▁похме
▁Гала
▁ежели
щицы
▁референ
▁разгла
▁носки
▁980
▁уроков
oz
▁режиссе
▁креста
▁иудей
▁воображения
▁ямы
▁приеду
▁офисе
▁выдержав
▁оккупи
▁коллега
▁1903
▁сиро
▁умиротвор
▁радовался
▁советник
▁познать
▁рулем
▁тысяча
▁научилась
▁отпры
▁норо
▁медалью
▁языку
▁свида
▁скал
angu
▁опубликовал
▁американские
▁форте
▁шк
▁задницу
▁окрестностях
▁Павловна
▁наград
▁Крик
▁волнами
▁гражданина
▁GER
миком
▁каково
▁сияние
▁бин
чы
▁визита
▁Опыт
▁ag
▁христианство
▁манда
▁сугу
ТЕЛЬ
▁легкое
стина
▁Обу
▁металл
▁материального
▁публики
▁Моги
▁течению
▁жилище
▁Джин
▁неа
▁европейской
ьян
▁Эдвард
▁шерсть
▁Северного
▁ставят
белев
▁крепкие
▁пехоты
ALY
▁взаимоотношения
▁партнё
▁детском
▁самолеты
▁Крон
▁существом
▁ближайшей
▁проживает
▁силам
▁брони
тун
▁Уильям
▁Publish
▁Послыш
▁костя
▁повсем
▁изле
прино
▁103
ренбург
▁экзамены
▁продолжалась
▁Андер
▁Мерку
▁демонов
▁Екатерин
▁CANADA
▁каникулы
▁никакая
▁бомбардиров
▁Заба
▁смета
▁весом
▁главой
▁приближался
▁наткнулся
▁пораньше
▁Суб
▁вынуждена
▁вторник
▁симфо
женности
▁казах
▁бомбы
▁удача
▁Веру
мино
▁Пои
▁малый
▁just
▁поэтом
▁скам
дн
▁несуще
▁your
▁привыкнуть
▁владелец
▁Моисей
▁сидишь
▁инфе
▁метр
▁ходи
▁элли
▁второ
ations
▁целует
▁использованием
▁ладоши
▁верующих
▁носила
▁таковой
▁хвали
▁Муд
▁хожу
▁небесах
▁шевель
▁багро
▁луче
▁стем
▁подей
▁крупной
▁называемых
▁проком
▁сборная
▁достигла
▁План
▁шерсти
▁тура
▁напал
▁Вашей
▁призван
▁соц
▁Платон
▁развивается
▁parent
▁спрашивали
▁доске
старе
▁мужчинами
▁колпа
▁Эдик
▁тишины
разви
заи
▁позвать
▁расслабля
▁проживания
гане
▁попи
▁стереоти
▁Маленькая
▁Откров
▁страни
▁бледно
▁ближайшего
▁ритми
бины
▁действием
няюсь
▁дань
▁подожди
▁шагах
чивали
НГ
▁едут
десятых
▁золотая
▁Сергеев
▁протягивает
▁Шуль
▁занята
▁стараются
▁подготовка
▁восемьдесят
▁записал
мус
▁Нару
▁займ
▁пользуется
ченности
▁реальностью
▁канад
▁коммунистов
▁особенность
▁напасть
▁юношу
▁останки
▁добав
▁128
▁зелёный
▁километра
▁мечту
▁ночные
▁диких
▁шагу
▁Отто
зывая
▁солнцу
▁распространение
▁ID
▁рейс
ёта
▁Лук
▁ягоды
▁объём
новато
▁кель
▁пиджак
▁легонько
▁Основные
▁территорий
▁Меся
▁голубыми
▁Везде
▁болен
алии
▁кружки
▁ЖИ
▁духовные
ild
▁Невоз
▁криками
▁Василиса
▁Абу
▁закля
▁наркотиков
▁направить
▁официальной
▁ском
▁телефонный
▁Смотрю
▁шпион
▁крича
▁отождеств
▁повернуть
▁ваку
▁треск
▁религиозной
▁определенных
▁Фан
▁толк
▁Египте
▁сжимая
▁сдавать
▁Оттуда
▁пепел
▁плену
вное
ull
▁входе
▁четверти
▁Веду
▁нехва
▁трясу
видения
лита
▁леп
▁Гото
▁композиции
▁восстановления
▁победителем
▁молодому
рову
нностью
▁avtor
▁полёта
cl
▁тёмные
▁трассе
▁НЕТ
▁they
внокоманду
▁револь
ьева
▁волосам
▁спрятать
▁воспал
▁полицейских
▁повторял
▁месторо
йке
тизма
▁Черного
▁читатели
▁загадочно
▁Визан
▁рыже
▁Апосто
▁беззвучно
▁понадобилось
▁ощущая
▁проявил
▁истинной
▁гимназии
▁выглядят
▁Важно
▁активность
▁хранения
▁переки
▁Жалко
▁школах
▁классической
▁Величество
▁разное
▁пулемет
▁конкурсе
▁кошку
▁яблоки
▁нынешней
▁поездку
▁Должно
▁забота
▁биографии
▁раскрыть
▁сги
▁Ков
▁явилась
▁стоящих
▁пустым
следовали
▁сково
▁госпиталь
пью
нским
▁серая
▁Преобра
▁прочитала
▁заросли
лией
▁отпустили
▁знанием
▁плохая
▁Сму
▁взмы
▁художественного
▁Майор
▁погоды
нутым
▁ведра
▁рабочим
▁рву
вающейся
▁Заслуженный
▁командования
кетом
▁мэра
▁заботиться
▁поудоб
▁происходили
▁Новго
▁карт
▁доступа
ever
▁готовит
▁Следующий
▁Дур
▁последовало
▁символом
чьем
шах
▁потолком
▁горных
ндо
▁купю
равли
▁газетах
тивном
▁Дона
▁потребуется
▁готовность
▁вытащила
▁отрыв
▁порыв
▁сквоз
ality
нейшая
▁магазинах
▁Божией
▁Покров
▁отси
▁Лам
▁назначение
▁стенку
▁представила
▁солны
▁гарде
▁вечного
▁страстей
▁безуспешно
▁Влада
рованном
▁нараста
▁яркой
▁довести
▁научил
рении
ставляет
нимались
ГДА
▁раздражение
▁ультра
▁помолчал
▁1725
▁монах
зовый
▁глупая
▁идешь
▁Молодые
▁жилье
пат
▁галлюцина
▁пробормотала
тясь
щешь
▁сква
▁посетил
▁деловито
▁Божия
▁мону
▁Решил
▁придумала
щил
▁красив
▁объективно
▁сапог
▁необходима
▁численности
▁ощутить
жто
▁плац
▁коллекции
▁написали
▁гитару
▁подходили
▁Курт
allet
▁Добра
▁пустоты
▁необходимых
▁Проблема
▁населённых
▁собирал
▁алкоголь
▁ОАО
▁чистом
▁ласки
нувшийся
▁раздумывая
▁Садись
▁Шесть
▁доклады
▁брос
чкин
▁художником
▁править
▁Жуков
▁Напо
рхия
▁неизвестного
▁вопросах
▁ein
▁столкнулся
▁эхо
меся
▁лампы
▁Елены
▁песне
предь
▁Рису
▁похороны
▁голые
стрен
▁свежей
▁пазу
▁торгу
▁Национального
▁ужасное
▁инфраструк
▁пират
▁основное
▁советская
▁стакана
▁сау
▁скамейку
▁детал
ВАЯ
▁Джер
▁сожалением
▁сравнении
▁сирот
▁повесе
▁Оку
▁Власти
▁Доку
▁выдел
▁сплошной
▁имму
▁стремятся
▁севера
▁ВВ
▁административного
▁медицинских
▁литературного
▁Никому
▁богам
▁ака
▁Завер
рских
▁необра
▁лестницу
▁замечание
▁гит
▁подвала
▁Вну
рению
▁муниципальных
▁обсуждения
▁обрам
▁столы
▁располагается
▁Другая
▁Ураль
▁Шей
ics
▁предписа
▁Строи
▁АНДР
▁вечное
▁перчат
сывать
▁аренду
▁свидетельство
▁начальства
▁gl
▁Темно
▁седьмой
▁поликли
▁Марат
▁гостям
▁легенда
▁ФИ
▁вмиг
▁вписы
▁позвонили
▁встречает
▁ареста
▁детях
▁реализо
▁заколо
▁зависимость
▁фрукты
▁пожелал
▁распространения
▁ДРУ
▁Память
▁Придется
▁съём
▁дедушки
▁телохрани
▁заготов
▁Знак
▁профессиональный
▁Гага
▁бало
▁выныр
▁Другое
▁восторгом
▁нарушить
▁привер
довые
▁Хорошая
▁потомков
▁кроватью
евской
▁барона
▁переписы
▁птицу
▁переживал
▁шарик
▁Инно
▁Медведь
▁оглуши
▁Санта
▁поблагодарил
▁Kни
▁хокке
▁воевал
▁придви
пило
▁филологи
▁физиологи
▁океане
▁сторонников
▁высказал
чивого
каль
▁небесный
▁поздоровался
▁приведет
▁min
▁характером
▁иллюмина
нинг
▁большевиков
ллы
нутая
▁надели
доры
▁дыры
▁комсомоль
▁окружения
▁Яга
▁иеро
▁купаться
▁перевода
▁тонким
▁изуча
▁открытом
▁плату
▁возвращаясь
▁Куз
▁Ленинградской
▁достопри
▁человеческую
▁ученика
▁Анатоль
▁ворвался
▁враз
▁горят
дева
▁журналов
▁Люсь
зеф
▁женская
▁Толя
▁служат
▁дорожки
▁Бек
▁which
▁триум
зило
▁сдержать
▁пенсион
▁располагались
▁пассажиры
▁управлении
▁свежим
▁Толпа
▁Суть
▁загора
▁проворчал
▁ночей
▁внутр
нологии
▁Логи
▁фокус
▁Клин
▁произвести
▁занимали
35
▁взмо
▁битва
▁Воспомина
ated
ненными
▁надписи
▁ведомства
▁успокойся
▁Вов
▁спутника
▁Хозяйка
▁UF
▁пилота
бера
▁крым
▁бассейна
▁ряде
▁накоп
▁агресси
▁перевели
▁свари
родный
▁выполнял
тологии
▁Телефон
ринг
▁испытаний
▁Эмили
▁описал
▁сладкий
▁переживаний
▁шапку
мерть
дков
▁ожидание
urg
▁примере
▁спортсмен
▁Гуми
ленд
▁активных
▁лесах
▁рыцарей
▁чуже
▁Франк
▁имеющий
▁даты
▁тенни
▁восприя
▁were
▁скрывается
▁сотню
▁катор
▁МЕ
▁кофей
▁действовал
▁настал
▁факта
▁отбрасы
ПК
▁Хью
шён
ливое
ватый
▁Понимаете
▁капри
▁надежд
▁сну
▁орденами
▁отличались
▁сделай
▁областях
▁Александром
▁плач
NCE
▁разбил
air
▁многого
▁любез
▁глубоким
▁Нормально
▁критика
▁зелёные
▁коммунизма
▁монта
▁проявить
понима
▁мясом
▁стреко
▁ушами
▁соглашение
нические
▁Марс
▁Денег
▁отличный
▁прибыль
▁отеля
▁горожан
▁тонкими
▁ПРЕД
▁считаться
▁незамедли
▁городские
erg
▁обход
ай
▁персид
722
▁Является
▁лезет
▁Достоевского
▁кули
▁сказок
▁кинулась
▁вене
▁осознания
▁Источник
▁Николаю
▁развел
ЕЦ
▁победе
сурд
▁деньгах
▁холодную
▁Австрии
▁послышалось
▁отрываясь
▁захвата
▁измерения
▁сумела
▁Стри
▁119
▁сделаны
▁окрестности
▁Пое
▁Дону
▁строения
▁мокрые
▁нынешнего
▁телекан
▁Аш
▁Смирнов
▁закрыта
▁меню
▁наяву
▁азиат
▁фабрики
▁влюбилась
▁шала
лках
▁общественный
▁XIII
▁некотором
▁англо
▁Власть
жденные
▁счастливая
▁ано
нс
▁повышения
▁IX
щам
▁удержаться
▁натуре
▁мальчишек
чально
▁плате
yn
▁смысло
тос
▁мешка
▁Барт
стрели
эна
▁перемени
▁приборы
▁стихии
▁ремень
▁пленных
▁интереснее
▁устраивать
пл
ляются
▁ср
pl
носились
▁there
▁религиозные
▁особня
▁отойти
▁несчастного
▁ручкой
▁предусмот
▁эльфов
▁свободны
▁собрании
мура
▁столкновения
▁шампанское
▁КАТ
▁Охран
▁кормили
▁погрузился
▁яще
▁традиция
▁тяжелое
▁ТЕ
▁спутник
▁Зима
▁Выгля
▁замечала
ственностью
▁синей
▁единиц
wn
почке
ологов
▁Митро
▁вампиров
▁схватив
▁сказанное
▁Пригла
▁корректи
▁незем
▁Борисович
▁распахнулась
мал
▁приводи
▁полов
▁одинаковые
▁постоянное
▁сосредоточиться
▁сериал
▁экста
▁Думал
▁укро
▁чужа
частли
▁КИ
▁предостере
дельной
▁спектакля
▁левого
▁прежних
▁попытались
▁убежала
▁поведением
▁проведение
▁римля
▁Сознание
▁лохма
▁ветвя
▁Вениа
▁музыкальной
▁нейтраль
▁исходит
▁начну
меда
▁рукопись
▁Весна
▁Прекрасно
68
▁орать
▁подош
▁знам
дается
нёмся
▁похоло
▁сигнали
▁трагедия
▁найдем
хнулась
▁Интерфак
каются
ево
▁клубом
▁расставаться
▁Великие
▁речки
▁Im
▁тока
▁профила
ke
▁существовала
▁дуэ
▁подхода
▁ключом
рьмя
we
▁частях
▁проводится
▁отказать
▁невесо
▁красноар
▁планом
ЕБЯ
▁историй
▁торпе
▁Приез
▁логики
зывать
▁бьют
▁землях
▁ИС
▁непроизвольно
▁Тен
▁взаимосвя
ченька
▁космического
вывали
ШКА
▁Единственный
▁Поня
губ
▁Образ
▁сгло
▁тоскливо
▁ящика
▁одеваться
гроб
▁Art
зусть
тян
▁осваи
▁кабины
▁выделить
идов
▁пацан
▁злом
▁вынести
▁проница
▁дурака
▁больным
▁Бери
▁приводя
ely
▁изнач
▁приложил
▁читая
▁веток
▁выбежал
▁фру
▁Анне
▁дачи
▁накра
хаться
совые
▁последующих
▁бедных
▁старшина
▁Начиная
▁ело
▁Сент
▁прилага
▁русское
каю
▁Меж
▁напишу
▁юбилей
▁юбку
▁неуют
▁пепель
▁уплы
▁пону
yr
сово
алью
▁наслаждением
▁заце
▁Стоило
▁кошек
емов
▁недостаток
мяк
▁научились
▁Абдулла
▁дружить
▁Открыв
▁оставшуюся
▁веселый
бота
▁сослу
▁поспо
▁ремонта
▁именами
▁парочка
▁делиться
▁отчаянии
▁обитания
▁погибнуть
▁Отра
гнувшись
бик
▁опозна
▁смет
▁учёных
▁нахлы
▁инде
▁задра
▁просо
фта
▁святы
▁структуре
беля
▁разлете
▁Романа
▁синего
▁притом
куля
▁Средний
▁Лана
▁немалы
БЛ
▁близкого
▁Родина
▁недостой
стические
▁регистрации
▁азербайд
▁довольны
▁лорд
AS
▁откинулся
▁жизненных
▁отошли
лялись
▁туалета
▁монаше
▁Стены
▁Взяв
▁шорох
▁сши
точной
▁передер
▁построения
HT
▁называемой
▁предлагают
▁паломни
▁усилием
▁Ситуа
▁бездом
▁ове
▁стрелки
▁богатые
▁садов
▁бороду
▁напряженно
▁Оши
▁человечеству
eth
▁кафедре
▁сравнение
▁проснуться
зировал
▁патрио
тично
цовой
▁представлений
шание
▁заказал
▁Андреем
▁исчезнет
▁Ере
▁алгорит
▁октябрь
▁time
▁похоронен
▁ося
ount
▁Вась
▁Знако
▁наркотики
лиц
▁кажутся
▁палатку
сис
▁записей
чатые
щенном
▁бандиты
▁детски
товского
▁трезво
▁БЕЗ
▁налете
▁Видел
сио
заться
▁проверил
▁слабые
▁отказывается
▁взрослым
▁выхватил
▁Кале
▁Лоша
мочки
▁опытный
▁роя
▁примеров
▁жизненный
▁концом
▁мелоди
▁вь
▁литературных
шам
▁насилие
▁пристав
▁провалился
жия
▁залива
▁разогре
▁ножа
▁недол
▁сотрудника
▁дьявол
▁Кате
▁Самар
▁тяжелых
кана
▁посадил
▁площадью
▁изощ
▁издан
▁совместной
▁подходить
▁сложил
летать
▁Наза
▁волшебник
▁Даге
гори
▁Дуб
▁Большое
▁задолго
▁гнездо
oug
▁московского
▁прогулку
▁пальцах
▁растение
▁холодное
▁руд
▁волков
канье
▁Видя
▁выходило
▁Гиль
erv
▁оставлю
▁Лиля
вары
▁претензии
▁Феодо
▁реальных
▁расще
▁долине
▁открылись
▁минутку
▁Скон
▁Раи
▁мелодия
▁вызывало
▁наблюдает
▁гиган
▁болеть
чником
▁забавно
▁жертвоприно
▁назывался
зовых
рировать
▁сексом
▁будущим
лялся
▁примы
▁отель
▁применить
▁вампира
▁инструкции
▁мощи
▁наизусть
▁возло
▁преиспо
сос
▁министерства
▁легкостью
▁познакомилась
▁турнир
▁Карина
▁кругло
▁Михал
сться
кивать
▁оказавшись
▁верности
▁непослу
глазый
▁дрянь
▁кавалерий
▁MIN
▁второму
▁Позвольте
▁уду
▁наилуч
▁красива
38
▁рявкнул
▁претенден
ционера
▁охва
▁ВЕЧ
▁прямым
▁полёт
▁насекомых
▁эфир
▁вкусом
▁Алик
▁шип
▁задох
КИЕ
▁лад
▁Выра
▁физическое
▁рау
▁споры
ада
▁водкой
▁крыльца
▁Ассоциа
▁похожая
▁обуви
▁отче
▁основана
▁мухи
▁защитник
▁уре
▁оснований
▁оказываются
▁Возра
▁быстрей
▁общались
▁передали
▁подобрать
лема
▁охранника
▁третьим
▁твоём
живается
▁развод
▁приступил
ЧЬ
▁звонко
лайн
▁чрезмер
▁солнечного
▁материальных
▁ребра
▁горячего
▁Статья
▁Тяжело
▁посадить
▁инспектор
▁Своей
▁уважать
▁компет
▁безжалостно
▁фирма
▁бровь
пывая
▁выбрался
▁необъят
▁выбере
▁прижим
▁Плу
ляем
▁очередное
▁конгре
▁пропове
▁концы
▁шептал
▁варианта
▁оперы
▁тенью
▁крестом
▁некто
▁втроем
▁реальные
▁восходя
▁поработать
▁серию
▁деятелей
▁цо
▁наступило
▁существовал
▁лапу
▁переплет
▁входом
▁собрав
▁исключено
▁Школа
ката
▁Центрального
▁Представляешь
▁Ленинграда
▁поворачивается
дельный
▁необычно
▁Инга
▁популярных
▁омер
точный
▁голуби
▁изуми
▁учебного
ступают
▁абсолютной
▁нравились
▁золотым
▁противодей
▁перевела
рше
▁вооруженных
▁включила
ole
▁дожи
▁разглядывал
pe
▁Комсомо
▁испытывала
▁восстание
почках
▁has
IEW
тники
▁веселье
▁пища
▁отрезал
▁супермар
▁кончается
▁преимущество
▁открытого
▁целым
▁Ладо
▁наподобие
▁уход
▁скуки
льными
▁дальнем
НЬ
▁Театра
▁лесов
▁АНДРЕЙ
▁характеристики
▁принципов
▁Управления
▁недобро
▁отто
▁азарт
▁добродете
▁старец
▁корне
тников
ровые
▁сугубо
▁Вить
▁бешено
▁приобрел
▁осед
альд
чане
▁Ака
▁сою
шень
▁Сергеем
▁требова
▁долги
▁Зинаида
▁травмы
▁вырвалось
▁упало
▁одноим
▁усу
▁труба
▁предоставить
▁читателю
▁фактом
▁Гур
вичи
нового
ниной
цки
▁115
▁четырьмя
▁шагами
▁готовился
▁лох
▁Мужики
▁Комната
▁пропало
▁посмер
▁Петер
▁Merc
▁температуры
▁домика
▁перебе
йди
▁посматри
▁учёные
▁специальной
▁Поме
хана
▁Приро
▁выплы
▁покидать
▁знамена
▁Собака
▁космической
лас
сья
▁серым
▁официальный
▁фактор
▁мертв
▁острым
▁сумерки
▁дышал
▁резким
▁освободиться
▁юга
▁ранних
▁траекто
▁Сбор
▁казаки
▁нефть
▁закрывает
▁проекты
▁извили
читывать
▁обратной
▁парашю
▁искусству
▁стеклом
▁мешо
▁Украину
▁сочинений
▁берё
ЦИЯ
▁переп
▁пирамиды
евым
▁топлива
▁попробуем
▁Тимофей
летают
рипел
▁остаток
▁необходим
▁охранников
▁рассматривает
▁шестнадцать
▁полег
ливость
▁Будьте
БР
▁настороженно
етра
▁протягивая
▁Пускай
▁надобно
▁удивило
▁алфа
▁одоле
▁занимаюсь
▁полус
▁Publisher
▁игроком
▁ST
▁Трофи
▁тревогу
▁расположенный
▁Кё
▁дьяволь
▁створ
▁Тень
▁выиграть
▁производит
кав
лио
▁Список
▁традиций
▁открытыми
▁природных
▁отступать
▁Вор
▁местечко
шину
▁советов
▁густые
▁яркое
▁serif
▁стенки
▁Приходи
▁письм
▁эстра
нком
▁курорт
▁строгий
▁отступил
тип
▁СЕРГ
▁неохотно
втор
▁Мю
порти
неся
▁красивыми
▁вреди
▁внуков
▁похва
ехав
▁Союзе
▁упражнения
▁гадость
▁Еле
▁Смерти
сочета
▁Университет
▁поведении
вардей
▁массой
▁чужое
▁мужей
▁заявили
▁Испу
▁Урал
▁Уч
шивая
▁Весной
▁Брон
▁мешки
42
▁трупов
▁прогресса
▁установлено
▁восточных
▁остановила
▁Шко
руй
▁владельца
▁тяжелая
▁плаще
▁соавто
▁портфель
36
енями
▁головной
менная
▁молние
▁зеленого
▁пояснила
▁личную
▁Кора
▁убедительно
ченному
▁подружка
▁юр
▁Тель
▁желтые
▁безответ
▁устран
▁Искусство
▁горно
мотрелся
▁амери
▁навига
нейшее
▁уезжать
▁располагалась
▁прогресс
▁повышение
▁услож
▁конфеты
▁собирали
▁Люци
▁Вселен
▁активное
▁Эрика
▁линий
ЕНЯ
▁катастрофи
▁ет
▁извне
▁дыру
▁похлопал
▁затро
▁жалоб
щине
▁присоединя
нету
▁ином
▁удостоен
▁168
▁овец
▁коза
▁агентство
▁непонятное
▁здравоохранения
▁Креп
▁хладно
▁Таджи
▁одеждой
▁выдохнула
▁требовала
6446
▁Милая
▁закат
▁Бом
▁капсу
▁милые
▁творит
▁ось
▁болтов
▁Тама
ij
▁Уро
▁Сэр
▁Хали
▁9806446
▁Оско
▁быстрый
▁грамм
▁Кораб
▁Дмитриевич
▁Уров
нерадо
▁мешали
▁Никакого
▁пойми
▁тягу
▁Рой
▁мифологи
▁целовал
▁помчался
▁ландша
▁охотников
▁обладать
▁Аку
берут
▁норве
▁Батю
▁экономике
▁возвращалась
▁редких
▁Хал
▁Белая
▁отвел
шающий
▁создано
▁нечаянно
▁диагноз
▁Тому
▁дымом
▁спасла
алия
▁изоли
▁материальной
▁Отпусти
▁зовет
▁слепой
▁Пры
енач
▁Поздравляю
▁добычи
▁воплощение
▁детектив
▁растёт
▁старшей
▁Пот
риса
▁этапа
▁уцеле
▁Пришла
▁звезду
▁тревого
▁Рам
▁многозначительно
▁потребления
▁железные
▁Коммуни
▁миль
▁Оне
сконча
▁достоинством
▁ноче
▁определению
▁Кузьми
▁Леночка
▁домашний
▁Ил
▁инстинкт
ТП
▁оторваться
волен
▁пользуются
▁проводят
▁порцию
▁преди
▁играя
▁детскую
▁Сказать
▁Рафа
▁нек
▁кость
▁посадку
▁Днев
▁дикие
▁монар
▁рассказывают
▁ed
▁чуди
▁происходящим
шны
BC
риком
▁фонтан
жающие
▁солнечные
▁подстав
▁ОР
▁тотали
▁app
▁поступает
▁Следом
дейла
сях
▁оставаясь
▁эксплуатации
▁Ближе
▁ритуал
▁правого
▁вв
▁дружбе
▁приеха
▁госпитал
▁усмешкой
▁причаст
▁странных
▁листы
▁Ольге
▁Сидя
▁бросается
сак
▁раба
▁срод
▁побед
▁разговаривает
▁пациента
▁слеса
▁Рецензия
▁Длина
▁сложной
▁лезвие
▁Екатерины
▁Этой
чикам
▁подкреп
▁пещер
▁непросто
▁традиционно
▁брось
▁следуя
става
▁Выступ
▁Похоронен
▁самоот
▁ковыря
▁страшную
▁Романов
▁узкие
▁яйцо
▁дешевле
▁одеяла
▁балконе
▁выскольз
▁Возник
▁музыкант
atch
▁Вопросы
▁скорб
▁областной
▁священно
▁библи
вную
▁яркая
▁авторит
▁Этому
▁суе
▁автомата
▁изумруд
▁единым
▁слышен
▁шляпу
туар
▁Кристиан
▁нови
▁Художник
▁терак
▁брит
▁Решение
▁собирает
▁величество
▁прокурор
▁облегченно
▁производстве
▁дино
▁Хил
▁Держа
бление
▁красавицы
▁прекрасную
▁заходить
▁Чаще
▁военная
▁клиента
▁Люк
▁ребяти
▁отпря
ствующего
▁Хаба
▁Андреевна
▁политик
▁реанима
▁допуск
▁помога
▁117
▁послали
▁вак
лда
▁способов
▁серьезное
▁канали
▁разочарование
▁семена
▁Лорд
▁страхи
бину
▁Сержа
▁близкий
▁правая
воде
▁мокрый
▁решёт
▁Сад
▁мотивы
▁музыкальный
▁Элис
▁рубежом
▁национальный
лыхал
▁следствием
▁Беско
▁Боло
▁академию
▁проекту
▁вздохом
▁South
▁BN
▁незнакомый
▁конкретных
дны
▁посто
▁существовали
▁Колька
▁востока
▁подготовить
▁Хит
▁забрала
▁Ельцин
▁сложилась
▁Зао
▁бинок
▁главному
ЕТСЯ
▁зазву
▁закончили
▁текли
тове
стером
▁являлось
▁боец
▁тревогой
▁отко
▁расчета
▁противником
▁зор
▁восторженно
нувший
▁частиц
▁Погода
▁ликвидации
▁кио
▁бездну
▁верхнюю
▁тянуло
▁сувер
▁Идти
▁Днем
▁дискоте
▁царской
▁одар
▁звеня
▁цу
▁хазар
▁интеллигенции
▁синим
▁безысхо
▁шёпотом
▁восемнадцать
▁начнем
дын
▁Ави
щиной
▁взвы
слен
▁последовательно
▁хер
▁возвращаются
▁дается
нёсся
▁вертолет
одоли
anguage
▁понравились
▁выбирает
▁дальних
▁мутан
▁оккупации
▁тысячелетия
▁начинался
▁Ы
▁расположено
дыва
▁повествования
▁мечтает
▁осы
▁мельком
▁ Л
▁щели
▁вени
▁серебро
тыся
▁задви
▁бабочки
ллу
▁схожу
▁пис
▁прошлых
▁Вознес
следно
▁плавать
▁находили
▁несостоя
▁рё
▁Машу
ьях
нине
▁Взял
▁ВОЗ
▁сверхъе
зри
▁репер
товский
ану
▁ехала
▁обмени
▁сидим
няло
 млн
▁сбора
▁повесил
▁бездар
▁расколо
▁заседание
▁проверка
▁Поси
эйн
▁переноси
▁музыкальных
▁Леви
юар
▁169
▁Поку
▁паспорта
▁расскажешь
▁объяснений
▁редактора
▁думы
▁недоб
▁образований
▁рубашка
▁Борь
▁возрасту
▁угнет
▁антисем
▁политическая
▁замену
▁нечелове
▁цензу
▁перевари
ствах
▁усиленно
швыр
▁компроми
▁факторов
▁эфире
▁баню
▁безумия
▁жаловаться
▁Вите
▁запястье
▁ходь
▁Латвии
▁Верховный
▁подходят
шню
▁умным
▁XIV
▁приезжает
▁заявляет
▁жары
▁Аман
▁проигра
▁Люда
▁дьявола
▁молчишь
▁бывали
руши
▁раун
высь
▁голосования
▁применять
▁Язык
▁храб
▁кухня
▁Мау
ктно
▁подоконнике
▁Лейтен
▁расположились
▁злодей
▁сестер
▁радует
▁отсле
тры
▁дива
▁политическую
несу
▁подчёр
▁жителями
яет
▁стойке
▁повисла
▁поворотом
▁Артура
▁Причина
elt
▁школьной
▁бывшим
▁Говорил
▁Департа
▁ощущала
▁праде
таем
▁Кости
▁обратились
▁остановилось
▁основал
ситься
▁созыва
▁жидкости
▁препод
▁сосуд
▁выставке
▁побыстрее
▁катастрофа
▁немед
▁Ваню
▁аквари
▁знаниями
▁Флорен
▁кучи
▁Кругом
▁ложа
▁ставший
▁здоровьем
▁спастись
▁арт
▁Царство
▁привязан
▁медицинского
▁учениками
▁снится
▁бас
хон
▁пацаны
шняя
▁неком
▁рождении
▁готовые
▁почву
ловский
▁выкрикнул
▁Шабу
▁встречали
▁хирурги
▁крыльце
▁композитор
▁безлю
▁Гр
▁полосу
▁невесту
▁случилась
▁мульт
▁пробы
▁легкомыс
ань
▁заинтересован
▁снимал
▁усердно
▁кран
▁предпринять
▁формирование
▁Лиса
▁повали
▁натяги
▁Шот
▁прикаса
▁Олеся
▁лукаво
▁железнодорожной
▁ТУ
be
▁побол
▁потяги
▁подоконник
▁прокру
▁Любов
▁Спер
свет
▁нед
▁толстые
риями
▁Люся
▁правительством
▁нежностью
▁ненавидел
▁управлением
▁заслуженный
▁пережил
▁дяде
▁богатым
▁менедже
▁прочел
▁споты
▁черто
▁Музей
▁родины
▁некой
▁стё
▁погибло
▁архив
▁соседями
▁Me
▁Давида
▁называются
▁странную
бец
▁бутылкой
▁разнообра
▁беспокоиться
▁дернул
▁скро
▁торопиться
▁населением
▁безумие
▁воедино
▁направлены
▁кажу
▁Ближ
▁чашу
▁балет
▁инциден
▁рассчитывал
pа
▁образец
▁невообрази
бало
нян
▁кратко
▁Невы
▁пользуясь
▁американцев
▁жару
▁вдохновение
▁человечески
▁du
ze
НИИ
▁количеству
▁поступков
▁Пуга
▁свободные
▁колодца
▁Эди
▁до 
▁Кавказа
▁зелен
тись
▁убежище
▁больные
▁Машка
▁прозы
▁пат
▁присажи
▁вооружение
▁инструмента
▁мужчинам
▁называла
▁короткими
▁управляет
▁кобы
▁зелени
▁задор
▁анекдот
▁Aвтор
▁мохна
▁мифи
▁оборони
▁костёр
▁Оставалось
▁унес
ness
▁круглые
▁предложением
▁милой
▁северу
▁впредь
▁звездой
▁общепри
вивал
▁минута
▁исчезнуть
▁расстав
▁Элла
▁нейро
▁соблюдать
▁Писатель
▁черти
▁Одиссе
▁Российского
▁злоупо
▁любезно
▁пятьсот
▁помнят
▁пробежал
▁предательство
ents
▁Компания
деятельности
▁головок
▁советую
▁лицам
▁занимать
▁немо
▁простира
▁деревянных
бак
▁Проза
▁опасения
▁Учены
▁уедин
▁главном
дельные
▁веками
▁лавки
▁культ
▁стрелкового
▁заслуживает
▁любителей
тывал
▁перестро
▁технике
тын
▁терпения
▁сока
▁участником
▁стараться
▁Наст
▁логике
▁Идет
щиками
▁ступенькам
глав
▁глубокого
▁набрать
▁выехал
▁готовили
ствующей
▁Змей
▁Еврей
▁навеки
▁инве
СТВЕН
▁обращался
веты
▁дальнейшей
▁внутренняя
думался
▁Гражданской
▁Францию
▁ухи
▁генерального
▁Прибал
▁храмов
▁выдали
▁испод
▁тулови
▁скота
▁ближнего
ализи
наго
▁тяжелее
▁оки
▁сбил
▁Настроение
▁заплакал
▁Леди
▁Аллах
▁влияет
▁Арти
▁преуспе
▁молодёжи
▁черни
▁определенного
▁вопль
▁космосе
▁Роберта
▁ревности
▁109
▁сакра
▁недоразум
▁конкретного
▁узкий
▁зарплата
▁Швейцарии
▁премьера
▁грязный
▁проживали
скаясь
чивают
▁Наука
▁Узнав
▁раста
▁Себа
▁сферу
▁Примор
▁АК
▁безв
▁поддерживал
▁укрепля
ссель
▁необыкновенно
▁справился
▁шкуру
▁разворо
▁бородой
▁жаре
▁собственная
▁умерших
▁жуж
лённые
anc
аны
▁престаре
▁оправдание
▁боевого
▁организме
▁клинок
каса
▁башню
▁поёт
▁1902
▁сокровища
кте
▁Алан
▁глубокое
▁состоят
▁Доми
▁наруши
▁135
▁Средне
далеке
▁сумке
▁геологи
▁передачу
▁Сев
▁адам
▁заработал
▁кричат
▁судом
▁продажу
▁обратный
▁Чин
▁Невозможно
▁фонта
▁компенси
▁коровы
▁прятаться
▁охранять
▁their
▁хороши
aya
▁je
▁выполняет
▁странами
▁водить
▁cons
▁po
▁отцы
▁сокры
▁ела
▁варианте
▁двинулась
▁Представьте
▁мекси
▁наследия
▁хулиган
▁полюбил
▁вставая
▁научным
▁пятнами
▁сжала
▁вони
▁неприятный
▁пустое
▁домами
▁Первоначально
▁богини
▁Посо
хивал
▁сахара
▁одобря
▁художники
▁абсур
▁железных
кета
▁директору
▁участвовала
▁отзыв
цкие
▁острыми
▁бескоры
▁проезд
кцией
▁РККА
▁каменных
бали
▁англ
▁хозяйстве
▁родиться
▁сотворил
▁заслужил
▁Яковлев
▁приснился
▁Горький
▁лавочке
▁зарабатывать
▁высшим
▁Мене
▁шизоф
▁просе
▁оттенок
▁впо
▁Славик
▁интересным
▁прислал
▁алюми
▁Андреев
▁тренировки
▁выругался
▁зашу
▁спрашивают
▁Пету
▁che
▁человеческом
▁Вашего
▁невозмутимо
▁Маркса
▁позавтра
▁фигурой
▁догнать
▁арбу
▁Родине
▁упу
▁покончить
▁врагу
▁Донба
▁Кошка
▁развитием
▁легкая
▁болезненно
▁отце
жённо
▁рабочем
▁жизнерадо
▁инструментов
▁подтверждает
▁шпри
▁1897
▁живую
▁немногих
▁продаже
▁горами
▁затылке
▁питание
▁уставились
▁перек
▁телевидения
родей
▁испове
▁князья
▁воспоминание
▁покла
▁&gt
▁недоумение
▁Божьего
▁прямого
▁заботу
▁pri
▁отражения
▁вью
▁Неп
▁считанные
▁Твое
▁выходом
▁Всеволод
▁заходя
▁Евгень
▁депутаты
▁молчу
▁пром
▁стражи
▁Солдат
▁прозе
▁поверьте
рины
ляцию
▁Andre
▁Здоров
кино
ите
▁доводи
▁памятников
▁Запах
▁домашние
▁Постой
▁простит
▁распра
▁Основная
▁помешает
▁детская
▁сообща
▁велосипед
▁Alex
▁удивительное
▁называться
▁благово
▁клана
▁выбежала
▁пронизы
шностью
▁ощути
▁запада
▁Западного
▁Иоган
▁Днепро
▁суеты
цких
▁погладила
▁сосно
▁картинку
▁сентябрь
влёк
49
kh
нималась
яю
▁ёл
▁бесследно
▁возразила
▁иллюзия
▁толстя
▁кристаллы
▁дочкой
▁Вик
▁Съ
▁сопли
▁способствует
росле
▁солнечных
▁пожиз
▁штабе
▁развлечения
▁полицейские
▁виднелись
тися
рази
линский
▁районы
▁злая
▁Мог
▁повторяю
▁отражает
enn
▁пустая
▁Ровно
▁неуго
ЛЬКО
▁звучало
▁целой
de
▁смириться
▁комментарии
тум
▁насущ
▁литературной
кель
▁сражение
▁туалете
▁стоны
▁рабство
▁Гил
▁Стара
жком
▁укрепления
▁отметила
▁эр
▁сд
▁умудря
▁выпустить
▁касаясь
▁находить
▁станем
▁исследователей
▁горячие
fer
▁троллейбу
▁Спокойно
▁попадают
▁Красота
▁проспекте
▁граммати
▁необычное
▁вечная
ЛАН
ерей
▁капитализма
▁представлена
▁окружающего
мотрим
▁безымя
▁выборе
рею
▁порыве
▁стука
▁коче
▁протекает
брались
▁БОГ
▁вершину
▁дальнейших
▁несовершенно
▁хал
▁закрывая
▁ученого
▁язви
▁Альбер
▁скали
▁Черни
▁входить
▁ворона
▁самоувер
lis
▁задуман
▁скафан
▁ближайших
▁последовали
▁физкуль
▁предлагали
▁культурной
▁равном
▁животным
уго
▁релье
▁Остров
▁размышлений
▁особые
ТС
▁редактором
▁случился
▁чью
▁Per
▁спасли
▁записать
▁had
▁Рен
▁Приятно
пнуть
▁Страна
▁коали
ционными
йдут
▁кроссов
▁относилась
▁Пана
▁заведение
▁агро
▁рассчита
▁самодо
▁привати
erson
рующего
▁широкая
▁открытых
▁литературный
▁предел
▁робот
▁правоохранительных
▁меняться
▁листьями
чни
▁портреты
▁наблюдается
▁готовится
▁рыцаря
гав
EVA
▁обмена
▁персонажа
▁лёгкий
▁подружки
тут
ризненно
▁прозрачной
▁украдкой
▁девчонку
▁текстом
▁речку
▁отвали
▁проголо
▁прозвучало
▁вдыха
▁противном
▁помогая
▁местными
▁желать
▁Сино
▁спешили
▁прокуратуры
▁правильное
▁Выход
скивали
тран
▁Вио
▁всевозможные
▁Герд
▁финала
▁ленин
▁выступлений
▁останешься
калипси
▁желтый
▁Молча
▁резонан
▁изучению
▁Эстонии
▁английски
▁крестьянской
▁салона
▁волшебный
▁собакой
вавшего
▁сдался
▁комбине
▁дорогого
▁выкра
▁нава
▁несконча
▁генеральный
▁открытые
▁Дре
▁импери
▁поставив
▁повсеме
▁продолжили
▁Тепло
▁Жора
▁настраи
▁средняя
▁доска
▁дежурный
▁приносили
вляю
▁появятся
▁Комитета
ночки
▁подполков
▁остальном
▁сделана
▁обыва
▁мироздания
▁счете
▁обеду
ственны
жённый
зоне
▁террористи
▁грабе
▁Литературы
▁выдавил
▁железная
▁современная
▁полетела
фори
▁рана
▁парочку
▁сражении
▁стабиль
▁бывать
благода
▁height
▁1893
▁Постара
▁разглядел
▁последними
▁прилет
▁разжи
▁Энгель
▁внутреннюю
▁подор
▁перебила
▁Volum
▁разба
▁диковин
▁определенный
▁доску
▁рюмку
▁исключение
▁спасает
▁нае
▁закрылась
▁усомни
▁грязью
нявшись
▁выко
гура
▁ун
▁Однотомник
▁убьют
снов
oot
▁зазвонил
▁Священ
▁инициативу
▁исследователи
▁красном
▁Справа
▁промок
▁пакети
▁бешены
▁старость
▁ввысь
▁чеки
▁общался
вером
▁группировки
▁внучка
▁сверхъесте
▁способностями
▁оставит
▁бокала
▁присоединиться
osp
▁дана
▁перерыв
▁пониманием
▁красками
▁неизвестный
▁кругах
▁незамедлительно
▁жилищ
▁картофе
▁ранней
▁Заку
▁демократия
▁ветку
▁возможное
▁жанра
▁Драко
гров
▁свойств
етта
▁заблуждение
▁отдельного
▁лбом
довых
▁ревно
▁движениями
▁сце
▁обза
▁обнимает
▁общественности
▁ближайшем
▁вытянул
▁ружья
▁прижала
▁будди
▁повреди
▁переговари
▁самоуправ
▁Молодая
стройка
▁поссо
▁верите
▁интересных
ai
▁измо
▁Мартиндейла
▁женить
▁шиф
▁диска
▁Губер
▁московских
▁трудовой
▁балкона
▁твоими
▁полюбить
▁Бред
жающих
▁князей
▁галстук
▁переза
▁тихой
▁Патрик
▁лауреа
▁Неизвестно
▁антен
▁обит
▁грань
▁Вест
пело
графия
▁Заметив
▁выпила
▁пожить
▁позу
▁Григория
▁дуба
▁задней
▁огонек
▁задумал
европей
▁джун
▁буря
▁пятеро
▁сотрудничество
▁принципа
▁частицы
▁покраснел
▁Болгарии
▁увеличить
бралась
▁правдо
тинг
пилась
▁скрывая
▁вскинул
▁выступали
▁пылью
▁Старая
▁методом
▁короткая
▁тянулись
▁Шевченко
▁Говорю
▁корей
▁серебряный
▁розовый
▁учат
▁куклу
ждалось
змы
постав
▁прислушиваясь
▁оптим
▁глы
▁концерта
ille
снет
▁клавиа
▁своев
23
▁Пожа
▁полуночи
▁профиль
▁Абсолютно
▁Экономи
▁pub
▁ведения
▁обратили
▁некоего
▁пруд
▁точностью
▁роскошь
▁Ксюша
▁зари
ШЬ
лятье
торам
▁разрыв
▁физические
▁Before
▁Осенью
▁свежие
▁министров
▁завари
▁воздуху
▁моти
▁воздушных
зка
▁оторо
▁впу
ody
▁покосился
▁Николаевича
▁стремления
▁полученные
▁органами
▁действовали
▁регионов
▁рядов
▁астеро
▁заболела
▁составили
▁бумажку
▁прямиком
▁граница
▁квалифици
▁похожей
▁стулья
▁поиско
▁отличалась
▁эссе
▁Дениса
▁дату
▁22446
лину
жённых
▁профилакти
▁чудесный
▁покупки
▁красок
меров
▁Kнига
▁спокойствия
▁22446722
▁распахнул
▁процента
▁стаи
▁Ужас
▁прослав
▁объявление
▁Вампи
гивала
▁закружилась
▁капит
▁ответит
▁сотрудничества
▁Мандель
▁окружающие
▁столике
рудно
▁меша
▁вспышка
▁рождаются
▁теплым
▁проводились
▁under
▁вель
гласно
надцатый
▁конструктор
▁Мани
▁беде
УЗ
▁дешё
▁поездка
▁Сити
▁ракови
▁бодр
▁наслаждаясь
▁приносить
▁узор
▁получиться
▁толко
▁стремились
▁специального
дайте
ait
▁наблюдение
▁пустых
▁подчерки
▁сувени
▁военач
▁https
▁педагог
▁явным
▁дохода
▁Теа
▁камы
▁национально
лером
▁прикосновение
▁Девчонки
леный
▁пропуска
▁ер
▁равновесия
▁Незнако
▁засне
▁стая
▁Шур
▁необычного
▁улыбнуться
▁воя
▁глю
ТОВ
▁приё
▁мастером
▁гляди
▁семнадцать
▁временам
▁прежнее
▁функций
дителю
▁удивительного
▁лобо
▁пациентов
▁очка
▁неплохой
▁шаман
денным
▁меркам
▁работая
ничал
▁поще
ict
жкам
▁сфотографи
▁пустить
▁Творец
▁намеренно
▁корова
хлеб
▁накапли
▁Опо
▁переживать
▁злополу
мири
ohn
▁наво
▁платформы
▁достижение
▁имелись
▁дика
▁Крю
▁молитва
ane
▁украинского
▁выжил
дого
▁песней
▁пиш
▁адвоката
▁серебра
▁областей
▁парков
▁гонора
стреми
▁отпи
▁Достоевский
▁палубу
▁музыканты
▁сидящего
▁Вернулся
▁сообщают
▁вкуса
▁мощным
▁Одет
дикт
▁канцеля
▁мифологии
▁ист
▁визг
▁иран
▁востребо
ссно
▁усовершен
▁часах
▁исся
▁ПИ
▁абсурд
▁поверили
▁городском
▁пообщаться
▁ручья
▁бедо
нутыми
▁изнемо
▁Действие
жайся
▁ВЕР
▁Шура
▁начиналось
▁Милый
ффа
▁157
▁догадывался
▁представляя
▁особи
▁прибытия
▁обязана
▁наты
▁гражданского
[...]
